[PAD]
[UNK]
[CLS]
[SEP]
[MASK]
.
##을
##의
,
##이
##에
"
'
##는
##를
##은
##가
(
)
##로
##한
##도
##일
##에서
##과
##년
##고
##으로
##인
이
있다
##다
##지
##와
1
수
##했다
고
2
##해
##월
##기
##하는
3
##이다
##하고
##만
##할
##시
##대
##리
##사
##자
전
·
한
##스
등
4
그
##서
##수
5
##주
##나
-
##어
있는
%
중
##전
##성
가
6
했다
##세
##진
##원
##면
##라
##된
##상
##동
##에게
##정
##부
##화
10
것
##적
정
유
김
7
##아
##소
##구
##회
##트
##차
##장
##게
8
제
##한다
신
##까지
##치
##조
것으로
##선
##드
##하게
##비
##산
대한
##명
9
##제
며
##에는
##우
##개
##보
##며
내
대
는
안
말했다
후
주
##위
##미
시
미
서울
박
사
##히
더
##형
##야
##들이
두
한국
##당
오
위해
##마
##신
##분
##호
이후
이날
때
조
##재
~
원
##하
##관
##르
밝혔다
한다
지난
미국
##국
함께
아
##하며
##적인
통해
19
##용
##여
다
지
일
##니
나
##계
##하지
기
##영
##하였다
12
11
##오
##연
비
강
보
##경
의
##하기
장
##단
서
말
##식
그는
##하여
부
##타
##러
##중
같은
20
##던
##적으로
에
이라고
##모
##방
##유
##루
뒤
구
##승
##무
##파
일본
##됐다
이어
공
중국
은
##현
소
##보다
##문
##종
해
로
##부터
##안
대해
무
##요
경기
##법
##석
상
##권
##실
##민
모
세
재
##되었다
및
오후
A
영화
성
##군
##크
동
하
##점
라고
##체
또
다른
18
##공
약
최
것이다
가장
마
##포
##에서는
문
첫
##물
##들은
##지만
하지만
자
##즈
##었다
##들
이상
남
0
바
##행
불
##카
총
연
##레
##금
도
양
##프
이번
30
를
지난해
##강
##2
##억
15
##려
##양
##준
현재
##질
모두
##노
분
반
##1
선
##된다
##이었다
##토
##건
문제
저
##생
때문에
##간
우
거
##학
##천
##였다
##운
##교
##심
할
것이
북한
##급
##역
##바
열린
당시
시즌
##들의
##린
잘
당
##터
##청
##면서
것은
최근
차
배
##내
큰
세계
16
간
##티
파
초
##e
따라
##되는
데
경우
올해
그러나
##에도
##란
등을
없다
발
##이나
위한
##디
##태
진
##직
##하면서
많은
다시
여
##작
하는
##했고
있었다
따르면
##들을
기록
과
것을
17
알
##코
##희
13
##감
S
14
##배
##속
단
##하다
포
피
##병
된다
결과
##키
경
스
##업
B
##하면
##발
우리
배우
##임
##해야
》
##《
##되어
##력
##환
25
##될
노
##창
##번
명
위
##만원
##거
사업
의원
##m
경제
국내
인
##판
##류
##남
입
:
##설
산
##두
##데
##패
실
대표
어
지역
특히
##훈
##통
##o
C
윤
##규
관계자
영
##되고
##량
?
않았다
역
##철
손
방
관련
기업
##피
##그
##복
##층
##억원
사용
##출
##돼
또한
##래
국가
##색
##집
건
없는
##s
##반
삼성
##으며
##엔
##이며
##3
됐다
달
##온
심
방송
게
모든
속
와
##격
번
외
##했던
리
카
K
##했지만
2016
자신의
##P
줄
군
##저
##위원회
##등
조사
##언
결정
사진
모습
화
백
많이
##론
날
매
아니라
SK
##년에
2015
동안
예
이에
개
임
##림
##투
##브
대통령
타
송
정부
LG
##씨
기술
볼
호
M
##네
다음
##버
/
사건
##씨는
적
##편
##리그
같다
승리
가운데
생각
교
##길
하고
지원
그리고
##근
##후
일부
##각
시작
21
올
개발
23
새
##본
24
##목
##았다
투자
##합
##년생
##열
##음
##a
감
##졌다
##팀
씨
채
만
하나
##처럼
##i
22
감독
한편
열
물
진행
##료
시장
못
왕
##지는
##라는
에서
100
##y
##절
##광
##초
점
될
등이
##워
##왕
각
##더
본
여성
현
##든
##박
##령
전했다
##처
##난
##는데
홍
아이
##주의
라는
사람
경찰
국
27
##점을
##스트
국제
팀
##매
민
##기를
D
28
트럼프
회사
2017
26
새로운
계속
##져
2018
##t
등의
황
북
좋은
이를
직접
추
관
…
정도
연구
##예
롯데
##라고
보고
삼
살
##T
##까
있어
판매
##입
들어
##결
P
활동
##증
최대
##족
이라며
다양한
이런
G
청
##n
공격
국민
뜻
##평
않고
받았다
##별
여러
서비스
##A
##위를
최고
##시간
29
내용
##표
##망
##g
오전
앞서
##이라는
애
##락
되었다
##이라고
종
##곡
##범
금
막
50
##테
##릴
평가
코
선수
선발
L
##명이
토
##살
##G
준비
친
전체
##들에게
않은
사회
##립
F
##에서도
부산
된
수사
##렸다
##E
영국
운영
천
받고
제품
프랑스
##경기
예정이다
2014
T
온
계획
있으며
역시
##백
허
시간
청와대
정책
##F
프로그램
주장
도시
검찰
##했다고
##해서
추가
결국
번째
개인
기준
##골
주요
##담
만나
만에
글
##냐
처음
##O
##탄
국회
감독은
공개
##츠
##추
##기도
작품
또는
규모
40
대한민국
교육
골
조선
않
E
해외
법
집
변
금융
치
제공
레
투
각각
라며
##찬
기간
##년부터
입장
통
발표
##쿠
##랑
역할
##봉
##장을
상황
라
러시아
순
##외
전국
걸
보인다
없이
##L
결
##약
장관
##친
난
##D
##er
##독
상태
있다는
##S
추진
게임
사이
설명했다
독일
##이닝
##M
생산
##변
계
제작
##품
##순
##성을
2013
##B
##그룹
##자가
##4
참여
돈
성장
죽
H
몸
때문이다
높은
##와의
##런
오는
두산
확인
##들과
##일부터
길
N
음악
극
밀
##개월
앞
##퍼
대통령은
##총
##항
받은
##명을
어떤
참
##되지
지난달
편
유지
##극
기존
사랑
메
##채
##덕
버
##습
##윤
행사
##자는
##너
쓰
##송
받아
공동
태
##대로
인사
##로서
눈
##k
##하자
의미
관리
##달
연기
담
기대
##u
있고
강화
인천
##시장
알려졌다
있을
W
31
확대
##메
_
수준
##명의
##향
##액
무대
유럽
성공
##울
찾아
적용
않는다
지금
대회
드라마
기록했다
출신
만들어
##불
대부분
아닌
##개의
##장은
##이자
##하던
##돌
돌
못했다
설
아들
문화
분석
##링
##날
##5
네
차량
for
##l
##사를
축구
##R
데뷔
2012
##p
현지
##혜
평
이미
##년간
예정
있다고
##북
공식
정치
복
##겠다
I
프로
부분
너무
##볼
##겨
##30
##름
여자
방송된
면서
마련
##일까지
이용
##함
우승
##숙
##말
연속
##갈
##애
##거나
##커
대학
크게
앞으로
남자
않는
모델
##효
권
대상
과거
의해
마지막
자리
후보
있도록
루
##하기로
악
요
먹
이야기
##사업
##익
##로부터
반대
미국의
열렸다
광
리그
진출
##탈
선거
변화
##K
아직
##슨
포함
책
V
사실
##술
##6
##에선
출연
폭
전쟁
대통령이
사고
R
##빈
패
출시
##&
관계
증
이하
자신
중앙
거래
##mula
아니다
대비
그룹
촬영
요구
##렌
##션
생
이는
독
##리는
창
방문
소속
팔
##축
##센터
발전
야
산업
##km
되
현대
한화
가족
아버지
직
특
기회
이라는
##쳐
생활
같이
##율
전문
그런
해당
용
총리
##하기도
##긴
딸
수도
브랜드
바로
##록
언론
귀
평균
##거리
더욱
##례
집중
##완
##케
베
##녀
노력
##습니다
조직
##C
##왔다
이유
승
인정
##른
##냈다
##업체
상대
대표는
##했으며
##섭
필요
KBO
안전
자유
##력을
회장
##암
참가
갖고
대신
않다
##책
하루
만큼
없었다
##도록
결혼
##안타
활약
]
일반
##al
사람이
있던
##쪽
##성이
[
근
글로벌
피해
##기업
수출
도입
특별
설치
함
##손
선택
최종
출
식
정부가
2010
구성
##번째
J
##슬
등에
##or
학
개선
##으나
##되면서
먼저
표현
##곤
가수
출전
교수
2011
##50
인상
##분기
이동
달리
경쟁
##취
홈런
키
##혁
반면
발생
마음
##올
페
영상
고려
##년대
##일에
MBC
내가
##권을
##균
터
##지를
혐의로
학교
항
##자로
경영
오늘
분위기
잡
##on
##스타
건설
##r
##폭
들
##c
##으면
##씩
시스템
매우
지방
논의
문재인
병
업무
##년까지
##기가
##곳
해결
##헌
투수
##기에
예상
가지
##10
구조
절
##블
##삼
##찰
##하겠다
올림픽
급
증가
농
대구
정보
자동차
##협회
광주
누
##이고
##이라
##7
##막
##움
자체
선정
개최
커
TV
아시아
있지만
연결
목
노래
##상을
##씨가
##밀
##자를
##악
의견
어떻게
##ar
후반
##충
헤
나라
물론
인해
60
훈련
표
형
상대로
아파트
과정에서
인구
위치한
##홍
외국인
설명
되는
##풍
섬
##하였고
영향을
경기도
올라
##였던
O
다음과
가진
합
##산업
##b
환
디
밤
고객
합의
조치
##칭
과정
##X
역사
2000
##스는
인기
##머
향
판단
##팅
나서
환경
KIA
곡
##∼
##플
##기관
현장
개봉
판
핵
NC
협력
##글
제기
##레이
정부는
2008
별
##님
시대
##위에
##탁
##견
갈
운동
가능성이
여행
##페
측
##베
내려
지지
처리
시작했다
실시
접
##20
등으로
설립
##U
##세기
대한민국의
##욱
암
##기로
일정
##착
두고
##쳤다
U
이제
##됐
작년
##H
것도
미래
##re
감독이
주변
으로
##촌
상품
병원
시절
이러한
방안
2009
테
경기가
스타
내년
보내
웃음
달러
삼성전자
기자
서로
따
홈
##입니다
만든
##은행
드
공급
##an
측은
전날
대응
중인
##인데
처
KBS
인터넷
##옥
나왔다
인도
확보
어느
환자
보였다
하지
작업
정상
넘어
보다
없
##장이
책임
##in
핵심
##년에는
풀
##필
##d
남성
기능
대통령의
##벌
##ic
##N
취
끝
앞두고
##사가
협상
중심
중요한
발견
##먼
계획이다
공간
##쓰
벌
왜
싶다
남북
놓
##검
SBS
상승
##염
의혹
##침
##택
변호사
##하도록
몇
수원
대전
많다
분야
내부
70
기념
##en
건물
방법
김정은
전반
위원장
모습이
봉
넥센
체
##h
올랐다
##주는
존재
##으로부터
##흥
팬들
제도
확정
##한다고
가격
##으
##하거나
##한다는
인물
##기는
보도했다
뿐
필
사망
않아
앨범
##60
있게
행
##척
주로
행정
##지고
오른
##TV
2019
##화를
##수는
비판
다만
이전
잠
동시에
2007
##자들
전략
거쳐
##능
나온다
나이
겸
업체
전달
시행
자기
넘
서울시
치료
감사
울
계약
##I
가지고
이란
사람은
이렇게
좋아
중이다
##전에서
조성
차례
공연
##걸
전망
경기에서
제안
직원
부문
외교
대화
##관리
인간
레이
##수가
은행
도전
매출
따른
얘기
##감을
시도
담당
않았
##턴
대선
규제
방식
##문화
혐의
있
때문
##8
대상으로
##낸
관련해
사장
이들은
처음으로
보면
##혀
##f
건강
##객
숨
##월부터
위기
##자의
##협
격
잔
몰
팬
##률
부담
신청
##했으
기관
##월에
이야기를
하락
##학교
못한
우려
작은
반응
##경제
##지역
##공사
자료
##클
목표
빈
브
대형
##힌
되어
실제
덧붙였다
##V
시각
강조했다
좀
준
나타났다
이름을
##했을
보호
##시켰다
중단
낙
위치
##죠
##틀
##폐
나가
주식
##수를
##좌
의사
야구
사실을
부동산
보도
##으로서
대해서는
상황에서
있는데
자연
##조사
캐릭터
##40
##하지만
없어
효과
##련
온라인
예산
##라운드
##회의
독립
퇴
##째
조정
##원은
마무리
##시설
돌아
존
##지원
그동안
아내
##궁
부상
정말
검토
##70
수입
##le
관한
친구
이해
즉
경험
낮
수비
##존
200
##졌
혁신
퍼
##나라
정도로
있기
찍
곳
##측
것이라고
##스터
정부의
얼마
옥
득점
성적
제대로
평화
##개를
아래
##치를
관객
##랜드
##〈
이탈리아
##람
전북
지나
차이
능력
##황
시리즈
단체
얼굴
##누
△
구속
##득
35
##타점
##리아
80
##관계
신고
##시즌
중심으로
새누리당
디자인
##회말
검사
힘
가능
염
이들
요청
여부
##하라
##원이
통과
감소
질
않을
청년
스포츠
응
위반
##<
##새
군사
##킹
제주
만들
##슈
휴
그가
##이지만
논란
에서는
##연승
박근혜
탄
남편
1000
제시
의료
##되며
##웅
사람들
울산
임명
쇼
아무
일이
사상
불법
노동
육
어머니
활용
역대
통합
올리
그린
주장했다
##회사
엄
승부
허용
연장
##스의
베트남
등장
##싱
압
##혼
##문을
인근
주도
##실점
##ch
##맨
이름
##마다
발매
석
미사일
위험
##둥
KT
##차전
##니까
학생
지정
기본
지급
망
필요한
자신이
규정
##압
##십
연출
##9
혼
삶
언급
##줄
회의
##교육
크
알고
뉴스
제재
오르
포인트
##확
나는
가능성
거의
늘
##있다
##병원
풍
목소리
작가
에너지
멤버
수상
기억
장면
좌
##라도
##갑
배치
분양
##었고
뉴욕
거리
검
그런데
달라
##진다
원내대표
##명으로
필요하다
완
뉴
높이
들어가
2006
##조선
##널
##사는
그것
현실
구단
##ing
스스로
비해
##시켜
일본의
민주당
제출
그대로
##W
정상회담
비용
##칠
##니아
혹
##춘
##있
꿈
##at
##개발
속도
인수
음
지적
복귀
행동
듯
500
##았
만들었다
##트리
##치는
소개
##v
##갔다
##딩
법원
하였다
칼
##하였으며
세상
무역
##었
##w
부회장
32
대표팀
말을
수요
순간
전투
##is
프
것에
##했는데
끝에
변경
##되었으며
이유로
주택
##치고
##금을
##이었던
##원을
각종
##컵
##리스
##대학교
##듯
##빙
##차례
그러
고용
##별로
##연패
##폰
초반
금리
##쇼
##렸
나섰다
##되면
일자리
##렉
발표했다
맛
##엘
kt
##정보
##선수
탈
그리스
캐
##정책
바람
나온
왔다
비롯해
##대회
참석
교체
##몬
너
범죄
전화
##투자
##금융
소비자
우선
관심을
겪
한다는
중국의
##하는데
프로젝트
##렬
안정
##버스
##둔
전환
##스가
받을
##쟁
##트로
선수들
자금
소식
부족
##us
활동을
고민
선수들이
멤버들
정권
회장은
##들도
대사
재판
최고의
부르
도로
##조원
트
##파크
##납
올렸다
대출
제한
깨
엄마
여전히
스마트폰
완성
##기술
##회초
피해자
꽃
##위로
##공원
구매
실패
호텔
대중
성과
장기
통신
##거래
돼
해야
받는
수행
##되었고
숙
투입
##력이
이루
쓴
직후
##it
##니다
##함을
되고
시설
광고
소재
높
한반도
사이에
조건
##학과
##정부
##였
##본부
민간
힘을
이달
방침
가져
##때
기사
##위원장
머리
33
판결
##드는
발사
형사
대체
##90
실제로
북한이
가치
근무
회복
45
불러
##군의
이같
발언
당국
빛
2005
초기
술
##홈런
월드컵
영업
안타
차지
##참
가정
최초로
##보고
행위
##바이
##있는
##19
형태
정신
소송
##셔
그래서
##리를
종합
s
녹
음식
##운동
스페인
##방송
추천
##탕
##룡
##허
##시티
발표한
상당
행복
졸업
하다
생각한다
##만명
카드
류
##호는
아니
##스크
단계
##뜨
금지
##었지만
##사회
##겠다는
거부
소리
효
뛰
##리에
김성
말한다
휘
주인공
빌
만난
매력
##원으로
야당
감독의
##쾌
##톤
구축
##개국
폐
전자
것이라는
보수
사전
가능하다
실적
전시
##육
특징
있습니다
걱정
##릭
##하겠다는
##접
돌파
내놓
위협
##하려
전력
전기
##자리
그림
##80
##시키
부인
000
시기
사례
넘는
살아
향후
탐
##위원
이와
특정
선언
기준으로
##리가
개혁
못하고
2004
##생활
열리는
##연구소
##닝
지구
##대학
여름
##베르
경남
충
##없이
##이기도
시간이
##명은
사실상
공유
교수는
##물을
있었던
##우스
후보자
공장
수석
떠나
##드리
수익
소설
교통
어려운
##간다
그러면서
34
##응
등록
웃
36
붙
##시키는
좋다
시민
##달러
타이
티
##단체
##선을
##학생
요리
##돈
지시
관심이
도쿄
##우는
##어요
##닉
정당
##식을
##500
업계
##칙
##㎡
약속
형성
부진
##장으로
원인
##기구
출발
##스와
사람들이
전문가
##업계
##큐
케
채용
보통
눈길
##건설
포함한
##몽
SNS
##제를
부부
반영
##대가
##귀
##념
##쳤
투표
##답
절차
강남
인식
시간을
보는
신규
선물
##가지
나오
관광
어렵다
주목
##억원을
##ol
그렇게
희망
90
##12
작
대북
홍콩
##들에
단지
##합니다
둘
강조
##성과
##린다
##사의
##틴
##비를
##험
장소
그들
열고
##엽
맞아
쉽게
모바일
설계
공개했다
전혀
##잉
콜
곧
알아
시험
질문에
우리나라
지배
##자들이
감정
##es
승점
##쿼터
예술
300
학생들
이재
한국의
강한
샤
##가구
유엔
노선
적이
##혈
범
##웨이
이승
흥행
대변인
##코리아
슬
기획
사과
파악
마음을
FC
특수
오히려
더불어민주당
##얼
유명
##되
##진은
오래
진행된
비롯한
제국
로마
슈
사회적
통일
혐의를
비핵화
##킨
공사
##엔터테인먼트
여기에
분류
보이
##x
축
재정
니
도착
##통신
홍보
##롱
##센
옆
쿠
데이터
하면
##징
주민
떠
골프
이뤄
소유
덕
지속
등판
이미지
운행
지분
만드는
증거
우리는
##젠
맥
클
##해진
##했
사실이
솔로
과학
##학자
완벽
프리
##전에
나와
현대차
##스러운
영어
본인
지상
있어서
징역
선두
##겐
##났다
떨어진
상황이
블랙
모양
달성
##득점
##위는
##뿐
##서는
알려져
충격
소득
만족
답
안보
##혔다
##욕
법률
이벤트
가능한
일대
##ro
##기간
땅
이곳
따라서
당선
철
##세가
젊은
##자와
끊
이때
논란이
##활동
방향
##몰
##컬
##회를
해도
38
크다
##ra
##25
갈등
종료
지금까지
##인지
2002
통화
우주
##되기
##튼
##끈
지키
타격
걸쳐
하이
##연구원
##ri
##려고
때는
것과
정의
##et
나머지
우리가
매장
일을
가입
총선
##장에서
취임
길이
##부는
거뒀다
안에
##스키
홈페이지
사태
##탑
전문가들
명의
매년
속에서
##멘
유통
전통
##풀
단독
받
나타나
인생
##라이
##ed
버스
왼쪽
보여
수술
이번에
중소기업
지켜
누구
신경
##콘
##났
우승을
##5000
차지했다
##800
취업
위해서
패배
##지도
##루타
놓고
##점으로
원래
제가
슈퍼
견
대책
밖에
케이
해석
지휘
##사로
조금
37
캐나다
한번
##승을
외부
##홀
##겠
단순
기반
##11
싱글
##장에
김종
끼
##리스트
전년
받았
연합
옷
국립
싸
짓
합류
현상
##샤
높다
청구
공공
##15
지하
꼭
기소
##th
##임을
바다
보고서
페이스북
##트를
빼
##자들은
체제
##해왔다
##됐고
워
비율
호주
##하겠다고
아이들
##주년
##카드
##여명
벤
##원의
잡아
밝히
##잡
KB
통한
비슷한
##大
##시에
겨울
p
##하려는
##농
압박
##법을
컴퓨터
##주택
수밖에
##타임
지적했다
침
임금
동물
후에
##성은
정보를
김정
인터뷰에서
체포
##었던
인터뷰
협의
한다고
##재단
##텔
유리
##심을
타고
전해졌다
공개된
완전히
벗
##21
##자인
##소를
##빌
밝혀
최소
##구를
##갔
무기
바탕으로
##지수
공무원
##월까지
메시지
플레이
##벽
##z
운
제조
##축구
의지
지명
전망이다
언어
대통령과
클럽
느낌
##사와
꾸준
김영
##트레
##화가
자랑
근거
비밀
##안을
내리
##팔
빠른
정치적
새로
부모
공정
예고
눈물
##현은
##죄
운전
보여주
나선
어린
폭발
머
##군은
디지털
발생한
##상의
##먹
알리
전에
##연맹
2003
##값
##평가
##세트
한미
소화
창업
회담
목적
대학교
연방
##99
접근
바꾸
##퇴
투어
경찰에
확장
철도
##멸
낮은
##낼
활
종목
임시
전용
##대표
테러
신뢰
팀의
##지면서
평양
파리
##벤
##되자
##칸
김태
대규모
언제
양국
##더라
##닐
보기
아니냐
빅
향해
앞에서
##빠
##루수
엔진
어디
쏟아
대기업
김민
##겼다
도널드
맞는
응원
스타일
of
전남
##쁘
노조
패션
##했기
그래
김씨
##킬
음반
구간
##받
##읍
카메라
불안
##라면
크기
자격
##엄
증시
##나무
##계약
엔
작성
자주
낸
##프로
한국은
취소
국정
##털
##럭
##앤
성공했다
##짐
애플
거두
중간
푸
##늘
##랜
긴
##DB
##경찰서
맞춰
##st
하며
##구역
실험
##음을
거주
순위
컨
연습
넓
##특
자녀
최초의
앤
자세
##24
##ur
##컴
많아
정리
타자
##왔
살인
회원
##억달러
IT
##16
폐지
혼자
외국
절대
민족
##이드
맨
속에
포기
세력
##18
##am
##영은
제외
##폴
일어나
시점
타선
여야
개막
자유한국당
##융
##원에
##진이
개정
끝나
콘텐츠
어린이
밝힌
기타
플
##el
##케이
역전
42
사드
진짜
셈
##핑
관측
##만큼
냉
때까지
강력한
집단
꾸
39
##보험
면
불구하고
시작한
헌법
비난
##어야
방식으로
반발
부정
법안
##레스
봄
경우가
##호선
원칙
있지
마을
불과
그리
심리
##데이
사람의
##㎞
##했습니다
해서
대법원
##로운
갖
55
늘었다
결승
대결
강제
##대의
라이
##17
흐름
##실장
##럼
브라질
알려진
##느냐
##점이
항공
말해
높아
보장
이유는
##헤
들었다
매각
포함해
처벌
국민의당
##표를
동원
예능
소감
신인
이적
빚
완전
동부
의무
체험
재산
기부
연간
##역을
아침
##내는
팀이
##호가
##이던
이용해
이끄는
52
##짝
1990
오픈
없다는
X
48
기여
답했다
##05
##맥
해군
##700
스마트
끌어
앞에
##전자
나오는
##푸
어려움
##혹
00
보험
##솔
##냈
놀
##으면서
매체
초대
찬
소비
m
작전
빠져
체결
AI
은퇴
선임
주는
비상
##시아
##법인
많았다
연주
##비아
##줬다
비교
할인
떨어지
##델
관련된
##받은
세종
최다
##컨
궁
관심
##벨
공항
냈다
##세대
##행위
이익
소속사
주말
##렴
보니
##수사
같
토론
##꼬
반도체
잘못
자본
인한
##14
색
콘서트
대표가
b
뒷
신한은행
절반
질문
의원이
중요
방어
##비가
착
잠실
##and
칸
구글
##증권
드러냈다
괴
가까운
부탁
기록한
##지에
##FC
##시킨
##전문
되지
밝
불리는
##트라
국회의원
##앙
익
##콜
혜택
발행
권력
있었
베이징
##06
신문
종교
##베이
지역에
2001
이정
그를
##로써
##하나
공부
##리지
써
태양
##활
의심
둔
품
적극
tvN
기초
##겠다고
다니
##지로
형식
호흡
코치
##밖에
##니스
항상
자산
별도
법정
하는데
진술
개편
##04
민주
##묘
밑
최선
지하철
##59
##계획
당초
되면
싶은
조작
잡았다
##김
특검
했
실력
동생
살해
##싸
41
들고
##만달러
기업들
##펜
최저임금
체계
플랫폼
볼넷
가르
지역에서
The
##08
##연구
받지
마이
##장관
주가
대만
선고
수용
##un
##닥
맡았다
남부
크리스
공을
미국과
##하려고
내렸다
##28
획득
##86
##군이
승리했다
##호를
##4000
##13
흑
헬
##200
##회에서
##900
전주
성격
계약을
자동
실수
그때
##힐
##해졌다
##구조
상장
##il
구체적
##끼
채널
##지지
강원도
##찌
##량이
43
탑재
구성된
제목
블
##쉬
보이는
전면
경계
복지
##부를
찾는
확산
거듭
런던
##국장
##부가
평소
다이
맡은
##23
밟
벽
메이
44
##79
명예
열차
사용자
##진영
##35
완화
의한
밴드
##졌고
##학년
정식
불리
물리
##텍
49
##더라도
오른쪽
주문
##핀
원정
북미
##덴
느끼
명령
##27
##좋
말이
경고
##as
사는
취지
특별한
올린
65
무사
##하다는
등과
##리오
근로자
부여
시작으로
감염
이들의
생명
##경기에서
상징
##주가
영입
보이고
다수
##Y
추격
##ir
갑
t
명단
경북
소통
##었는데
아빠
내용이
월드
##랭
건축
적시타
않으면
##보는
임대
한국당
포항
열심히
반드시
시장에서
초청
##흐
없었
##밴
역임
평창
모아
##텐
사무
한국인
영업이익
이론
##오는
등에서
가슴
##09
본사
##자동차
영역
도움이
의회
저녁
##일간
대한항공
동의
후원
사이트
##98
시위
기자회견
##96
욕
##87
##스카
남아
##스포츠
홀
##믿
여기
인력
묘
출마
희
##정을
정체
##영화
쉬
탄생
##체육
##초등학교
열어
받는다
당신
개념
직원들
##공항
##mm
##륙
##뉴
인권
##94
##께
사이에서
없을
현지시각
했던
직전
수도권
##안전
마르
##셀
CEO
##첩
그려졌다
##넷
46
하나로
연락
##잔
만약
##대에
##민은
상무
본다
열었다
종류
##본부장
400
##으려
##하우스
##릿
##고속도로
아주
헌
##페이
##럽
국방부
##89
탄핵
##26
##53
##낭
##하다가
##시키고
출범
FIFA
성남
대표적인
75
##장과
마쳤다
경쟁력
됐
그녀는
센터
클래식
##받았다
##8000
##게임
1980
뇌
영향
##줬
##제도
금액
청소년
##이란
출판
관계를
하자
CJ
지속적
외교부
요즘
합병
육군
쓸
##자금
입주
논
진입
##cm
##성장
고양
##서비스
요소
##랄
멕시코
상반기
47
계열사
##환경
없고
활성화
심사
##92
프레
51
앱
##정은
##개혁
분리
다양
아베
네이버
##연금
남은
중요하다
##더니
김동
상위
다소
##함으로써
마리
뿐만
the
사기
일단
##르는
참석해
##07
##룬
##쯤
지금은
승인
좋지
파견
강원
작용
##지구
IS
##감이
대기
했고
##타수
예비
##머니
없다고
죽음
##섬
##97
증가했다
이틀
##la
남쪽
굴
가구
동영상
옛
쉽지
부과
##라인
##대상
센
회장이
서울대
적극적으로
긴급
인증
주거
응답
##하였으나
창원
##57
타이어뱅크
범행
사용하는
투구
##55
플레이오프
빠르게
##럴
충돌
59
표정
끝난
##om
관객들
떨
빨리
선출
##졸
오랜
배경
##느
엘
##22
##꽃
##빛
장비
이사장
KCC
##ia
보냈다
53
발휘
##휴
틀
##줘
마치
입고
##알
##루에서
##즐
지도
폭행
##부문
도움을
##펠
늘어나
지역의
제외한
고위
##슛
중에
##흔
EU
것처럼
##받는
##스티
흔들
알게
액
##대책
##수록
c
자아냈다
눈에
임원
무실점
##민이
표준
판사
##ation
옮겨
나무
정규
반복
##장의
1999
150
가는
##롭
##딜
Q
##37
갖춘
##중앙
##id
마케팅
##기록
지식
펼쳤다
하나의
보유
##동안
던지
##ST
미디어
##협력
바뀌
썼다
FA
충분히
들어서
아동
##신문
가득
돌려
##내고
쪽
메르스
극장
56
##한테
군대
보안
잉글랜드
삼진
##山
미국에서
지진
이민
사랑을
##비서관
기분
뭐
택시
손흥민
##둘
탓
설정
##웨
##어로
개의
진정
##트는
신설
라디오
##룸
동기
##체를
의장
특성
##발전
##과학
##체육관에서
##면서도
##사건
대해서도
##회의에서
버전
##6000
##사에
노출
지사
54
##BC
매일
맡아
트위터
명칭
북쪽
그려
##시대
기대감
##문학
주석
##물이
##해온
마친
유사
재판부는
이혼
##쥐
선보였다
묻
인도네시아
공감
재개
교사
밥
##44
내린
배출
내야
##쇠
다리
##47
일상
주자
표시
##다면
싱가포르
##단을
##관이
새롭게
d
채택
오리온
하반기
위에
최초
경기에
희생
애니메이션
바란다
##려는
황제
책임을
돌아가
##83
도중
올려
##현이
주민들
사법
죄
관광객
2020
##다른
좋겠다
##스케
##ter
위해서는
봐
##54
부대
박사
아프리카
인민
손을
미소
방영
교황
생기
상호
##하다고
사무실
받으
##배우
탈출
의식
##시킬
##만으로
##았던
##라스
명이
가량
##AR
예측
동맹
동점
##단의
##희는
매주
##어서
MC
1998
집행
다르다
바이
추정
##올림픽
구입
이내
##협정
초등학교
NH
권리
움직임
훨씬
##되기도
##붙
프로농구
분노
곳이
챔피언
모르
펜
점검
총장
5000
##56
출석
##개로
f
##탈삼진
주연
##티브
##차전에서
##낸다
##ad
육성
##씨와
못하는
하면서
1997
시상식
##성의
기원전
악화
여당
##구장에서
남녀
##검사
여의도
듣고
##픽
처분
얻어
재무
##36
##기와
북부
있었지만
강남구
##휘
나누
##당한
진단
정치인
보낸
문자
##사에서
##소득
펼쳐
##단계
무료
##주를
화제
네덜란드
필리핀
##팩
원하는
태국
동료
기계
소녀
사퇴
꼽
도발
예상된다
교회
임기
57
##피스
화학
운영하는
신분
이성
점에서
갑자기
본선
자리에서
일종
지도자
##39
봤다
집에
당했다
화려한
##J
터키
##선의
그녀
##박물관
선수가
리드
넘게
##아이
철학
만남
단어
마크
##서울
소련
상하이
더불어
라인
만화
##굴
스웨덴
##러스
향상
아웃
뜨거운
비중
##라이트
유도
지원을
##선이
61
수정
관세
끌었다
택
##겁
카페
##룩
소방
부품
##한다면
세대
##7000
64
폴
벌어
뒤에
쌍
셀
하늘
##전쟁
##43
##륜
58
영국의
아이돌
##촉
김재
##과정
귀국
잊
벌어진
시작된
##메이
##사단
콘
소프트웨어
생각이
고등학교
가까이
가졌다
3000
여기서
##29
##쉽
활발
##93
통계
KGC
만루
##ow
중국이
##질환
##中
##모토
문학
##스턴
##밥
##부에
혜
늘어난
일반적으로
｜
나올
향한
##피안타
블루
##시스템
개정안
선박
결합
척
##국제
추가로
연구원
##멜
로봇
미리
접수
##른바
못해
##짜리
후보는
##봐야
##ul
##였고
##석은
##없는
흥
##하면서도
인스타그램
공화국
풀어
유로
근처
현지시간
##흉
##위가
세금
마이크
##42
운용
##수의
곽
예선
국민의
맹
액션
##38
긴장
##덤
요인
##었으며
##잇
##려면
화면
앞선
철저
나오고
백악관
##훈련
외에도
가동
##단이
축하
##스코
미군
동아일보
##다운
##앨
##um
몰아
##듀
##타워
결정했다
이사
걸그룹
깊은
혈
##문제
했는데
##했었다
##적이고
금메달
유명한
##관은
##야구
하여
화재
적은
힘든
통산
##33
우리은행
커피
이종
##칼
##34
잡고
예를
미국이
김상
목적으로
편집
이름은
제공한다
사용할
파이
##흡
불편
의도
말라
##31
##소리
##포인트
공모
판정
##옹
##브라
외에
싸움
뛰어난
산하
##닛
입단
##32
Y
호투
주최
이름으로
범위
##콤
정기
편성
들어간
목표로
##릉
##겼
동쪽
##시험
수록
워싱턴
##곱
이것은
##비는
##받아
에어
처음이다
이기
이어졌다
##뿐만
변신
값
잠시
##BS
##金
마치고
##하였
세워
베어스
##석이
기다리
출연해
##군에
수치
개입
##「
국회에서
이끌어
##쇄
걸어
식당
상황에
##억원으로
1970
때마다
현금
##봤다
##보니
##文
계산
##들로
##ot
주고
정확한
선사
덕분에
파괴
##해달라
주제
출장
확실
서쪽
##능력
앙
##sp
극복
띄
성인
상업
##이지
GS
##되었
##볼넷
혁명
##죽
뮤지컬
깜짝
덜
신임
##캐
##행사
구분
상황이다
##세요
놀라
다섯
하겠다
폐쇄
##op
자신감
태도
창출
좁
이름이
제작진
스크린
##타운
##꾼
참석한
직업
##내기
##아메리카
##ay
빠진
##보증
만들고
스토리
##부의
##91
##300
분석했다
이래
62
##식이
물질
##램
새벽
강력
알려
##딘
##프리
1988
##kg
##ne
1995
총재
##se
중구
펼치
##예술
싶어
##크로
들여
##군을
원장
쓰는
이끌었다
마약
##교통
바이오
##톱
##보면
세우
##GM
개통
촉구
포즈
모여
##흘
이전에
호소
##부장
##진흥
현장에서
##단지
땅볼
##제로
타율
형제
곳에
##에만
비행
##보호
일어난
##매치
단일
##공장
대표이사
자치
생존
적절
즐기
##우가
징계
차관
댓글
##감독
생긴
담긴
이슬람
선수단
안양
##스토
코스
출연했다
무대에
##경은
복수
사건이
전개
대리
서부
지점
스테
벗어나
축제
살펴
##기획
양성
바라
##프라
##놀
##상은
게이
프리미엄
불만
달려
국정원
##600
얻었다
배터리
허위
영화를
이들이
시장에
기업이
불펜
1994
인하
유일한
##덩
허가
고통
공약
최씨
부사장
63
형태로
사장은
##뢰
##學
피부
##렀
##첨
##선거
검증
##기준
##함이
청주
한국시간
최순실
있었고
왔
포스코
예방
앞세워
제공하는
##세의
##48
친구들
파일
선보이
엠
점점
##65
##젤
##李
##자에게
St
66
##IC
##뇌
##버리
##밍
고백
##화된
복합
같아
이어진
않겠다
있으면
계기로
측정
##셰
##컷
기독교
징
시내
제거
고소
##국가
##j
해소
##략
##지게
1996
##타를
여론
네트워크
##띠
구조조정
부분이
성능
라이브
자리에
출입
미세먼지
어깨
##호로
본격
고급
공포
##ut
에이스
##윈
시청자들
내에서
끝까지
인공지능
속하는
개봉한
승강장
뇌물
연극
##즘
누적
재미
동일
##신도시
경기장
장식
진행됐다
##교회
성폭행
우려가
##공단
대해서
##짓
집회
##조정
입증
전원
##시마
하기
축소
고발
주의
맞이
북한은
만들기
##씨에게
중반
문서
장르
검색
통상
신호
만한
감동
느껴
동아
능
##동에
세월호
캠프
누가
김수
곧바
발달
##범죄
##봐
신용
느
폭력
숫자
##2000
김진
결론
인정받
측면
경력
파트너
칭찬
유치
모집
##따
맡고
##깃
##li
전까지
해상
영향력
##lo
이듬해
매출액
분야에서
늘리
##명이다
들어갔다
##72
내고
노동자
찬성
우수
김기
까지
무리
후속
##위안
짐
승리로
취하고
##조차
##학적
##²
##으니
##상품
##닌
##400
전기차
상처
중국은
##nd
##야마
무려
유니
제주도
편의
사항
##닭
최고위원
사라
연말
답변
주력
벌금
##51
##토리
##하니
##하라고
환율
굉장
##펀드
현재까지
쏠
넘겨
##밤
##았고
공연을
마음이
72
번역
진실
##실에서
통제
법적
##학원
위하여
주제로
돌아온
받게
##웰
국가대표
뮤직
세운
오사카
##PO
실행
혼란
##면세점
PC
##워크
입학
베이
떨어졌다
조기
갔다
팀을
완료
##州
##뼈
오바마
줄어들
68
##투표
##잎
##번호
접촉
##복지
팀은
120
안내
##켜
거절
67
법무부
##렀다
##포럼
시리아
##생명
맞추
당장
기울
##리어
##룰
해명
##패로
##공학
##랐다
드러났다
##영이
명확
##고등학교
현행
입은
판매량
이행
발견된
합격
분쟁
황금
##드로
##틸
차원에서
한정
##아웃
##나갔다
쓰고
##들어
위원
##리바운드
나눠
무슨
##달라고
##화학
리더
특허
##te
##52
보상
##ce
##빵
부장판사
김현
과제
분명
##도서관
여러분
지적이
##받고
대회에서
세웠다
찾은
한국과
원전
##떼
물건
사람들은
##TO
##됐지만
빠지
뛰어
교류
자원
자극
##호의
선호
묵
것이었다
펼치고
타이틀
지어
전파
수립
##롤
##권이
##돼야
##항공
열린다
##뷰
살고
감독과
##해주는
자이언츠
##텔레콤
요금
##경영
##선은
먹는
##플러스
##→
이영
업종
##제품
위로
##ss
연기를
##겠지만
줄었다
소장
##렸고
이주
떨어져
한국에서
선수로
충남
얼
건너
##분쯤
성명
선배
전역
예전
##됨
이사회
제약
출연한
장치
결제
회계
왕국
카카오
선전
발굴
증명
유격수
##PS
생방송
보이지
##ou
머물
##해도
##國
히어로즈
협
조언
펀드
##이어서
장착
만났다
##ig
참석했다
##9000
##디스플레이
복잡
때도
때부터
한계
태어났다
김경
##가격
##클럽
준다
##바르
##ac
차별
관할
##100
파워
##공간
스타트업
안타를
##기기
85
최저
##르트
결승전
이슈
공기
막아
인프라
빨
신화
박정
##0
나중에
포수
짧은
전부터
마감
##관광
##대학원
##셋
##얀
벨
뒤집
##투어
##95
천안
비디오
그쳤다
Ch
##테크
##무역
원을
상승세
성향
통보
힘입어
뿌리
신체
플라
의원들
지냈다
미니
##하시
마찬가지로
경제적
식사
아름다운
국경
균형
##실내체육관에서
국방
신라
스위스
##비치
해체
채권
##켄
나타내
##듣
##필드
##틱
기반으로
오늘날
정비
사정
정치권
역량
국내에서
조합
의결
연계
전자랜드
간의
석유
선수들의
1987
휴식
발생했다
##os
그녀의
갤럭시
##순위
##분의
경찰이
힘이
최대한
화성
제일
##윌
연애
주행
부처
이것
있으나
##꾸
자살
널리
연예
확인됐다
In
주관
##브리
봤
손실
1992
미국은
진행한다
##명과
기쁨
김용
##등급
따로
대하여
경주
임직원
노사
69
예약
단위
심판
끝내
제조업
모습으로
흐
맞서
##렛
그냥
경우에
연설
체력
솔
바꿔
마시
주지
##순환
주주
설득
홈경기
타구
지내
다룬
시인
탈락
##롬
연봉
##었으나
수십
손님
폴란드
##율이
이중
##너스
##논
군인
상대적으로
대해선
컴백
미술
비판했다
노인
##숭
실무
서울특별시
교육부
만들어진
출국
자사
항공기
춤
점령
해주
생각했다
##셨
방지
##농협
승객
##ent
본격적으로
투자자들
시신
트윈스
용산
##me
개별
탈퇴
밀어
캠페인
작곡
공군
한국에
중국에서
##75
찾아가
##넥
임신
##마저
상영
##달라
보유한
이용한
소환
바라보
로드
아쉬움
평균자책점
딱
##3000
오브
##더스
키우
식품
유력
매매
권한
점이
털
장점
##금리
재직
움직이
행정부
올랐
힘들
in
점차
##oc
직무
##퓨
빠졌다
않기
관련한
##타이
스튜디오
##샌
반전
##CC
저장
##가량
##율을
캘리포니아
이끌
도심
법인
보건
유출
오스트리아
부당
알려지
전공
동반
목록
Re
##춤
##빌딩
74
##하고자
02
진행했다
##ie
고대
##쏘
휴대전화
##三
검찰이
1993
엘리
##수석
콩
주재
암살
심각한
##호텔
넣어
무엇보다
##자료
붙잡
국민연금
##준다
공립
##대표팀
있는지
페르
지정되었다
친박
##것
무장
비즈니스
점수
다루
거둔
내내
1960
코미디
##사령관
##주기
합니다
가격이
##체계
저지
##으므로
웹
##놓고
즐길
이용할
음원
고정
찾았다
낮아
73
##놓
기소된
떠난
프라
폐기
##워드
##결과
제임스
실질적
집권
물량
##45
승진
소년
잡지
1991
##벼
제정
슈팅
##88
##맛
말레이시아
김주
##드린다
자신들
##꺼
연대
용인
원작
코리아
마지막으로
지낸
하나이다
주전
가로
방탄소년단
윌리엄
##마자
가격은
##디스
많았
이상이
마주
##튜
##종합
방향으로
진화
농구
대학생
km
면적은
조각
아니었다
##렁
##49
실현
사유
꺼
전세
에스
패스
더블
##경찰
대단
찬스
수준으로
##끄
세계에서
짜
중국과
##겹
톱
71
소형
01
위기에
600
##캔
남아있
차단
##끼리
코드
좋아하는
##카와
##믹
개방
84
약간
싶
드러내
연예인
검찰에
일본에서
수학
##렇
##마켓
되었고
##여행
##安
구속영장
##하나은행
##시부터
일제
##대출
공화당
##롭게
##ha
정부와
경선
##디아
둘러싼
열정
전설
모임
스포츠동아
증가한
##미터
상담
##국민
용어
통해서
모았다
뽑아
말고
청약
추구
문제로
대폭
회장의
이뤄진
고향
물었다
였다
평가했다
##자산
둘째
##식품
수업
투자자
남겼다
치른
##터미널
클라
비행기
##84
강경
의문
##소송
상승했다
인재
편지
##으로써
저희
##르게
국민들
한화는
진료
시민들
실점
취득
아르
##회장
끌고
장애
작품이다
쥐
이스라엘
##부대
이글스
잡은
여유
할머니
참여한
인연
나왔
결성
녹음
치러
국가대표팀
수영
받기
시선을
##아시아
거론
시대에
먹고
##둑
일으키
##사이트
이라
정지
이수
담아
각자
생각해
대표하는
##춰
있어야
03
운전자
상상
자회사
박수
##상태
활용해
태평양
1989
막기
##샷
부총리
튀
##OC
실시간
##세포
사용한
##전략
숲
화장품
현역
DB
중동
효과가
등장한
똑같
교환
조약
차트
포함된
##46
##물질
사안
입법
바닥
부천
록
흘러
##연합
##지방
집안
강하게
금융위
나도
##겠습니다
부지
독자
배우들
특유의
##냥
맥주
이어갔다
차지한
안에서
사로잡
윈
##해진다
집에서
공개됐다
탑승
위성
데이
##눌
##교수
추적
재단
허리
번호
북핵
그간
한때
세트
##SA
것이라
독일의
곳에서
본격적
co
농업
##장치
수단
##음악
경우도
##공업
##노동
평생
베스트
않게
##85
##ap
피의자
해당하는
감시
물러
무시
불가능
의존
추세
받아들이
적발
유니폼
포착
총괄
의미한다
공략
연인
공개한
##랩
보여주는
정착
식물
변호인
자전거
감성
쳐
실내
##핵
##삭
88
조절
있었는데
테스트
중국인
관중
운명
내주
구현
주인
칠
대륙
호남
아이디어
힐
당황
넘치는
샘
##SS
롤
이르는
높였다
##di
솔직
매입
괜찮
타이거즈
폭로
착수
전후
요구했다
지목
나타난
가스
##투수
원유
##푼
##떡
그렇다
부장
##레이션
출산
텐
표기
필수
##포트
PD
칭
지지율
맞았다
나갈
프로야구
시기에
##뱅크
비교적
핵실험
##저축은행
멋진
세포
적자
##픈
이라면서
논문
선보이고
후보로
추락
시사
##껏
장애인
w
##82
그만큼
SM
무게
##㈜
나란히
수집
텔레비전
가문
증상
##률이
진보
공천
앉아
##사무소
##AC
참고
토지
김준
##킷
붕괴
노무현
행진
Z
##프레
도망
UEFA
##박스
중학교
태풍
##협상
협박
국내외
##함에
##극장
유래
##마리
##시장에서
##당국
##ER
##르크
오토
기아차
달하는
대거
있을지
상주
감소했다
적어
컸다
돌입
못할
외환
유전자
##平
비리
장군
측이
해안
사직
말이다
품질
감각
##東
간부
담겨
맞고
엄청난
아울러
점유율
##all
가리
말았다
나설
이준
부정적
전부
방문해
나선다
##II
성공한
협조
서울중앙지검
##셨다
맡았
안방
##연대
##스테
영토
가톨릭
##시킨다
상태에서
원주
안겼다
##ab
보급
이태
##돔
베테랑
듯한
덮
발언을
임무
신속
무죄
##톡
##턱
목숨
##이라면
골든
코너
러브
날씨
말한
김모
77
화물
높이는
요시
치르
결혼식
##sh
있을까
##특별
직장
##녕
합동
##짧
가상
개발한
부활
지도부
매달
공시
##홀에서
##리조트
##DI
아마
비롯
이외에
##탱
인지
결심
되기
높아지
고문
##ard
촉
##해져
메이저리그
76
심각
대립
만날
신중
아우
웃었다
각국
차원
##되는데
동해
보유하고
지닌
##조직
코스닥
이른다
묻는
전직
##ve
78
오피스텔
부른다
치열한
전세계
##71
##68
##뿌
당일
국무총리
쇼핑
##팀장
증인
##im
지수
철강
##깝
##넌
##67
싶었다
##같은
레드
마운드
전망했다
야마
증권
영화제
##뉴스
보복
불교
맞대결
관여
##베리
신세계
##드라
집계
노동당
가리킨다
유튜브
개헌
종로구
구상
##학회
강릉
고교
##퀴
##윗
고려해
통치
내각
##SC
##OS
파울
않았고
메인
건조
커플
경험이
하더라
##펀
마감했다
##호텔에서
모비스
##부르크
특집
##사랑
행사에
멀
보관
##되었으나
##77
진행된다
##76
##킴
태어난
첨단
바이러스
들어오
김승
##처리
팝
##63
존재한다
몇몇
규모가
지연
##69
##엇
여자친구
추석
##구나
##NA
##CL
것인지
대답
비슷
95
##카운트
직구
##행정
환영
일주일
##od
##궐
##시오
##쁜
##스쿨
애정
##블록
경상북도
와이번스
급격
소수
침해
공통
묘사
서명
##받을
세계적인
##닷
흥미
##엉
골키퍼
자국
장악
보완
소식통
가게
테마
간담회
승격
##시키기
성관계
##했는지
역사를
찾기
늘어
이웃
연령
가치가
##협의회
##쫓
##팬
##액은
친환경
마찬가지
##업자
빼앗
다녀
각오
##중학교
메이저
차기
물어
지켜보
후보가
조용
저자
덴마크
항의
##ge
온도
h
멀티
1985
##교육청
나아가
김병
지원하는
##tion
##뒀
목격
알렸다
역사적
##무라
필요성
선고했다
단장
연휴
1500
##人
티켓
수백
추정된다
##과학기술
정유
##클리
몰랐
곳은
입국
개설
##헬
없으
계열
##子
사무총장
소비자들
인기가
나누고
##tr
##캠퍼스
셰프
AP
하락했다
영광
못한다
해양
선수이다
보존
심장
##64
마이클
등급
낼
재활
##줘야
커뮤니티
실업
##ver
##드라마
의뢰
음성
##왔던
##IA
미만
##ea
댄스
쌀
##괄
생겨
##프트
돌아오
지표
##갤
펼친
##맘
챔피언스리그
##ec
서류
적응
금감원
행보
##교사
한강
그랜드
종전
걸린
당한
1986
##78
모른다
참여했다
대장
가족들
화제를
##켓
##코스
SUV
키워
##ry
메뉴
##em
중대
따르
헝가리
##na
##ine
히트
대외
영장
##횡
어려워
브리핑
병사
유발
올라가
##AS
페이지
##켈
가면
것이란
헤어
일찍
##맹
넘기
팬들에게
LA
아카데미
##플레이
조사됐다
달아
##법상
##훔
##후보
주기
##구장
했다고
##기금
재료
##58
라이온즈
##뭉
기업인
빗
의혹이
##원장
가서
##뮤
##닮
돌아왔다
난민
##66
출생
언급했다
##비용
##펑
##놓은
##사진
관람
##1000
휴가
##밭
등장하는
##경기장에서
고령
도움
추억
서울중앙지법
성분
그렇지
부담이
이었다
인공
##사항
창립
아르헨티나
##北
틈
한국전력
현대자동차
통증
##EC
AFC
##우드
KEB
방해
캡처
저항
동시
줬다
##여자
강연
##AM
아이폰
학습
이어지는
브리
##피아
환호
재판에
열애
적극적
즉시
선발로
기조
배제
다이노스
변동
a
##해요
오해
##센트
차지하는
기획재정부
드러나
여론조사
열리
어렵
가능성도
##ell
##댄
슈틸리케
태어나
시선
모자
##져야
스페셜
성립
홀로
수상했다
##센터에서
판단했다
청문회
VIP
떠났다
증언
말하는
##듬
부근
##AT
##●
스탠
삼성생명
##ill
유나이티드
##MC
이명박
##스럽다
Al
개성
있었으
자율
조심
##잠
그곳
대량
##41
##vi
무산
##버린
##용품
##IN
시나리오
##이었고
보여준다
순수
생겼다
주간
살리
착용
예능프로그램
배상
##아시안컵
계좌
부실
지었다
##넬
줄어든
시작됐다
US
늘고
재벌
신곡
방송에서
부상으로
##돋
이집트
압력
믿고
추경
##책임
불어
랩
걸리
공격수
82
대처
##썼
##췄
공작
##협약
국제사회
##조치
com
관찰
##븐
##est
##대교
어제
협약
논리
##톨
수수료
개막전
경매
##스틴
한국어
건립
소문
##체제
실책
##청장
곳곳에
##스톤
동일한
가사
##하였는데
선두타자
##62
시작해
점수를
기원
공정위
##멋
마산
조별리그
유학
챔피언십
##었습니다
정규리그
인류
이라크
##74
이대호
##一
대법관
현대캐피탈
##하라는
81
관계자들
##머스
급증
##현대
남겨
벌인
투명
아일랜드
충북
##CO
폭탄
고속
엑스
핀란드
##뻔
기온
##모델
훼손
광화문
##아시안게임
지위
입원
##굿
##여개
전무
##혐
나오지
##해지고
실천
언니
실종
최신
서식
거치
부채
양자
좋았다
##라이브
동작
감독님
##닷컴
##클레
그랬
##머리
경향
##q
포지션
안철수
김선
##라운드에서
대로
##몸
커지고
##버그
전술
##꼴
베를린
##정치
임상
토대
집계됐다
외모
세부
선생님
##괴
진행하고
벌였다
자문
1984
출간
대표적
케이블
극본
모르는
편입
회동
업체들
압수수색
아티스트
##▷
거친
180
MY
##나가는
최정
동료들
##약품
뮤직비디오
역사상
운영하고
시진핑
롯데그룹
권고
유일하게
연관
개시
요청했다
북측
##세이브
철수
##테이션
활용한
창조
국왕
와서
에릭
요구하는
잇는
누구나
적지
##61
##道
##高
질병
잠실구장에서
격차
##MA
광역
반란
생성
느낀
크레
컬러
상당한
##므
그럼에
오빠
##십자
##했어요
노리
달한다
할리우드
취재진
시청률
성장률
##같
##ive
생각하는
국토교통부
어벤져스
캐스팅
주목받
공공기관
입지
유행
1950
즉각
포르투갈
크로스
파업
##낙
그러자
##ES
de
시작한다
방위
##최
성추행
반성
장난
분명히
훌륭
이것이
건국
1945
##갔고
다카
이용자
막판
작동
밀려
게스트
누리
최악
조항
작품으로
협업
함수
행성
빌려
누군가
##테르
끝내기
편안
부족한
입사
##南
기상청
불가피
이어질
미치는
합작
안산
##DS
##놈
##킥
마사
##미술관
사후
##art
시범
강요
강세
##획
##ta
몰래
해제
이겨
##골프
화웨이
추측
##연전
##기념
비중이
실망
새정치민주연합
이루어진
아마존
보컬
발탁
무관
스틸
사용한다
실패했다
출루
미션
##함과
이끌고
제압
파티
독특한
삭제
중부
불렀다
##랐
배당
##『
##분께
##사령부
##Q
불린다
##校
백화점
몽골
거짓말
디젤
라인업
나쁜
자율주행
양측
집으로
1982
##ti
##DC
##73
날아
몰려
놀이
##께서
대통령에게
##天
불구속
수비수
품목
##뤄
일본군
따뜻한
피고인
##짜
봉사
##AN
단속
광장
기지
수익률
끌
편의점
충전
즉위
화이트
좌우
탈당
담배
유명하다
본래
보여줬다
넓은
외신
페스티벌
무렵
베이스
VR
집중력
본회의
선보인다
여객
취재
현안
설립된
삼성화재
하원
정무
구성되어
##민족
포스터
톰
##섞
##팽
##城
영등포
방송된다
말하며
연료
청춘
정황
##봤
JTBC
화장실
확률
위치해
않았던
##펴
없었던
##法
##티아
문화재
##ho
없지만
기자들과
##끄러
있음을
##깔
콘셉트
무한도전
전용면적
##언더파
핫
대타
##에너지
종종
생일
##모리
##TS
입장에서
##투자증권
##ist
별명
비록
소집
##칩
흔히
병력
궁금
밝혔
CNN
몫
한층
##펄
정수
적합
부모님
사업자
싸우
문구
지켰다
납치
밖
영향으로
선제
##플랜
출신으로
기후
마운드에
크라
국적
##하느냐
아예
영웅
BMW
브라운
위안부
무상
기각
소개했다
##유럽
디자이너
스트레스
취급
변수
긍정적
구체적으로
경상남도
뉴질랜드
재건축
##명에게
믿음
여권
##랍
비전
인원
면적
체결했다
제외하고
범인
##땅
##년만에
동참
사이버
표면
비교해
없애
학문
CGV
##콧
정확히
유재석
계승
만든다
연세대
곁
##보며
바뀌었다
달성했다
##넨
컨디션
소셜미디어
지자체
창단
벌어지는
김희
항목
다음날
분포
평택
##ph
##팝
대안
##음에
##쓸
조선시대
집합
면담
취약
조명
##스럽게
국무위원장
토트넘
##햄
천연
생각하고
##탐
달린
##앵
도박
##펙
받아들여
사회주의
있겠
일반적인
근대
##혁신
클린턴
선보인
최소화
##스토어
호평
이어지고
##정상회담
오랫동안
##ma
##네스
존중
정원
드림
##심사
양산
경비
##ers
퍼포먼스
꼽힌다
유연
신형
줄여
아니면
발생하는
이뤄졌다
자택
직장인
엄격
펼쳐진
##韓
##릇
사립
숨진
재배
1983
##되도록
표명
흡수
상금
한국시리즈
멀리
긍정적인
던진
못했
##혔
시청
박스오피스
##갓
식민지
코트
의하면
일요일
##ity
곳으로
방법으로
민주주의
##노조
김혜
아니고
명품
##툼
공조
##he
다음달
##보라
##점슛
사임
텍사스
##클래스
또다시
환경부
##푸드
해임
##섹
맞춘
트랙
거대한
사용되는
##겸
과감
##노스
복원
##치료
꺼내
##국제영화제
국가안보
배경으로
전망된다
미친
꼽았다
붙여
개최된
Ma
##셜
공백
##플라
걸려
관료
귀족
포토
퇴직
##MB
##년째
가입자
야권
OK
자식
브렉시트
포토타임
##ak
##앞
##스틱
##Z
##금액
몰리
보조
선정됐다
구성원
둘러싸
##생산
위즈
조달
쪽으로
##잭
하계
완공
##없
발표된
바른정당
##텀
메모리
지출
##81
재능
MVP
맞게
어떠한
국무부
패키지
흐르
##시리즈
확인했다
##뇨
CCTV
벨기에
기준금리
##처분
##회담
##뉘
삼성물산
국토부
도달
궤도
측면에서
둔화
##졌던
다르게
승용차
조현
유입
##학부
##엑
에피소드
폼페이오
등장했다
시계
용의자
##영화제
##IS
인터
##박쥐
##상황
철회
##판매
노후
계정
블룸버그
##사이드
주장하는
##커스
오스트레일리아
작곡가
학술
설비
측근
배달
##긋
주류
##데스
##보드
합쳐
견해
##겠느냐
이병헌
##연합회
설치된
##였으며
이겼다
양상
가짜
받았고
던져
입었다
마스터
하위
벌이고
누르
횡령
있으니
예매
##웨어
공주
서브
##되었던
리얼
##셉
마포구
심지어
밝혀졌다
높았다
느낄
문건
면접
순서
일원
뒤늦게
현대모비스
##팡
마드리드
납품
갖춰
##ly
편리
아키
근육
공판
안정적인
사용된다
##쿠르
접전
해당한다
##오픈
재미있
것입니다
준우승
구원
전통적
##uc
법칙
여배우
손상
유죄
잘못된
손해배상
##개월간
양식
배정
출동
기대한다
준공
수상자
인용해
보건복지부
##땐
##렐
로버트
학부모
기자회견에서
엔트리
##시쯤
##싼
프로듀서
##땀
매니저
논쟁
공식적으로
무조건
핵무기
박병호
입찰
##맥스
##up
조금씩
왕조
생애
배려
정밀
##TI
회전
##갱
nb
던졌다
밖으로
크고
명성
합의했다
않을까
사망했다
선수권
미칠
잭슨
출근
##콩
라면서
리스크
마블
잇따라
자연스럽게
동네
인사들
1981
석탄
가상화폐
아나운서
해킹
현직
단축
서버
대우조선해양
##곰
경유
FTA
타이틀곡
중심지
1973
당사자
대항
가담
##제약
중순
우정
전라남도
그럴
엑소
발목
사연
게재
일으킨
##新
강렬한
최우수
당내
드론
사라지
아프
합리적
##렸지만
넘겼다
주위
시작하였다
##軍
역전승
영양
##이므로
정규직
물러나
보여준
합성
##故
공산당
##축제
질주
부임
##들었다
선언했다
시청자
www
##풋
돼지
없게
##혁명
털어놨다
##DA
갖추고
##ex
##ate
##공화국
항소심
비공개
묻자
초점
##효율
매수
운항
겪고
##ub
키움
살려
차세대
##갈수록
할아버지
선발투수
##03
지역구
여사
냉장고
리더십
##법원
맛있
벌어졌다
##비율
고양시
처음에
용기
만났
##ment
쿠바
해방
요건
##사람
##방안
사망자
##뱀
##해준다
갖추
##경쟁
##채널
바뀐
시카고
##미디어
국산
##ang
일방적
노르웨이
트렌드
신제품
##중공업
비정규직
GDP
우수한
##아프리카
급여
광복
##블리
탄탄
창작
브루
##뱅
##스타디움에서
바른미래당
어려울
##홀딩스
서초구
피아노
##들로부터
흔들리
채무
격려
##되게
##CS
당분간
인용
그라운드
육상
모으고
위대한
견제
##네요
침입
##되었는데
공익
##싸움
모르겠다
정상화
돕는
더민주
남긴
##야말로
외곽
패널
들어온
청탁
단행
미드필더
집행유예
##찔
성매매
스카이
고객들
##io
##公
테이블
##버렸다
경위
침체
##붕
병역
숙소
##벅
춘천
동계
반격
효율적
여왕
##ON
두번째
##事
##럿
교통사고
클라우드
사람들에게
칼럼
##해줄
한글
##공동체
##캠프
##ㆍ
##퀸
기자간담회
높게
이마트
일각에서
##PC
분열
##파운드
충분
과장
##캡
최고경영자
확신
아이템
##엠
높여
벤치
알바
마리아
##프로그램
##예요
레스토랑
맞춤형
철거
개장
주어진
상당수
성공적으로
동양
흔적
이례적
데이비드
위상
연구개발
공중
유치원
##템
로맨스
헨리
키스
탈북
세계적으로
트와이스
IMF
끌려
##필름
의정부
원정경기
복무
증권사
풍부한
쓰레기
CD
##ber
##방향
열릴
1975
확실히
김윤
벌써
##하더라
갈아
1979
##묵
##氏
이루어져
##건강
해운대
좌전
공시했다
1972
추모
불과하다
솔루션
##맵
##ight
토요일
유럽연합
로켓
##기능
불참
##흙
##랫
성폭력
풀이된다
보험사
끝났다
천황
인접
랭킹
사운드
갖는다
폴리
들려
##겔
팽팽
끊임없
전투기
##AD
##ud
김현수
##川
상관없
목사
먼지
모스크바
판문점
당연히
중견수
빅뱅
색깔
기기
작사
위축
##았는데
생물
##폼
류현진
##담당
헤드
패턴
갖게
보면서
녹색
발견됐다
중요성
넣었다
##쉐
##슐
크리스마스
사우디
청원
풍경
버디
##스타즈
##NC
승차
WSJ
궁금증
뜻한다
상대방
힘들다
대법원장
##눈
목포
입건
아니지만
복면가왕
힙합
전략적
무력
##매체
창설
어른
이용하여
##멍
발견되
##NE
통일부
커졌다
치열
##‧
##손해보험
워낙
##IT
꼬리
현황
뚜렷
##겉
연준
##농구
방북
욕심
원자력
회원국
MS
어린이집
1974
##궤
##海
비서실장
송파구
현대중공업
경찰관
경제학
충분한
선생
항공사
##답게
##모씨
사라진
비트코인
##바퀴
싶었
##ip
담겼다
현대건설
조합원
상속
##正
##지방법원
##쿨
내외
졸업하고
##륨
카르
물류
넘어서
발급
들어선
##옵
자카르타
위안화
##SI
노벨
##딴
##EA
이루어지
축구대표팀
예외
하와이
##벡
뷰티
##co
낮추
독점
살아남
사냥
삼아
야외
Me
마침내
산업혁명
##FM
익숙
##코프
빨간
##해주고
##랙
##굽
##뤼
스피드
침묵
급등
이메일
잠정
CAR
입력
감사하다
억제
##베스트
폭스
##노동조합
##∼20
푸틴
둘러
DJ
시사회
##월드컵
##ong
##특위
##HD
나타냈다
##박람회
주차장
Ro
만들었
##GB
1978
붙어
우리카드
이어가고
없기
우크라이나
챌린지
충청남도
당부했다
교과서
##되었지만
##득점으로
발효
##저우
##첸
첫날
##쇼핑
##⅓
##CP
보험료
보였
빠르
있었기
##밋
닥터
##무늬
도약
##핸드
본명
히로
다저스
주목된다
##＇
선제골
스파이
아이콘
이르면
플래
##hi
면모
지불
국무장관
##졌으며
이승엽
재판장
##홈쇼핑
군사적
##義
내다봤다
조만간
있느냐
접속
유효
Th
촉진
##썸
##햇
양현종
코스피지수
##어시스트
학위
포함됐다
1971
##오카
오키나와
##펌
휴대폰
##하이닉스
무승부
##포스
끈다
터널
##였는데
갈라
##宗
좌익수
##TA
의약품
커지
빅데이터
크루즈
##ff
쇼핑몰
정의당
##뭇
해커
##엿
가리키는
챙기
##슬라
아랍
진행되는
##MI
##맑
스티븐
쓰인다
후손
데이트
열기
마쓰
사찰
##큰
절감
##윙
카타르
늘어날
##동맹
운송
##해줬다
항구
막내
아마추어
부작용
여섯
못했던
##옷
##ld
금융감독원
근본적
허락
호응
##깐
챙겨
가맹점
김대중
하노이
##봇
##iv
##숍
우익수
트레이드
나눔
법인세
##오프
재판부
김일성
##되거나
##man
어려웠
고구려
건강보험
코믹
Ar
철도역
긴장감
숨겨
##ran
1969
숙박
발간
좋을
##뚜
선보일
금품
박명수
제휴
상임위
꾸며
조율
1940
##벨트
##붐
코엑스
대대적
석방
##地
1968
달렸다
뜨겁
##ect
태양광
면제
1976
##보살
듣는
UAE
중화인민공화국
분량
스태프
옵션
예상치
충실
한국은행
이재용
1948
게재했다
플레이어
슬라이더
멈추
흰색
심사위원
잠수함
골밑
최하위
본질
##per
장거리
권위
터뜨렸다
보좌관
극대화
##뮤직
1963
##넘
마스크
생산량
kr
박씨
감탄
올스타전
##유플러스
노예
흑자
BBC
물론이고
메달
조선민주주의인민공화국
##붓
##잖
1962
##하셨
1977
선수들에게
맹활약
##컴퍼니
홍준표
냄새
음식점
##RE
여성들
##통합
들었
##놨
뛰어나
계급
쉬운
개그맨
##☞
##덧
기대된다
독립운동
어릴
##아름
재난
응용
양쪽
로스앤젤레스
##깎
##꽤
##PI
켈리
소셜
만찬
느꼈다
오디션
오페라
##our
DNA
창업자
타자들
##ack
존경
폴크스바겐
##對
혈액
인천공항
첫째
존재감
나눴다
##長
##콕
걸었다
검거
1965
##민주당
꿈꾸
늘려
위탁
1920
리콜
##⅔
일어났다
며칠
싶지
터뜨리
깨끗
김무성
섹시
집값
##챔피언
##기업은행
##ant
##긍
보조금
거짓
지붕
##딸
##였으나
##젖
단백질
뛰어넘
자유롭게
같았다
##태평양
달라진
힘들었
페이스
##렘
채권단
라이언
경기력
##뒤
##ast
##콘서트
애플리케이션
##元
우연히
손가락
##체육관
충족
상향
##쿼
##×
선진국
힐링
검사장
담장
주고받
##㎝
##딕
내놨다
탔다
기재부
색상
몸매
##RO
맞붙
##지방경찰청
##無
감안하면
시범경기
##되던
##RS
음료
올스타
보여줄
자리잡
1967
알았다
인텔
들어갈
##랴
유승민
착공
##iz
##上
가까워
지나치게
개성공단
그래픽
올렸
##明
##핏
평범한
데리고
기뻐하
추정되는
탄력
좋았
사우디아라비아
##끓
오랜만에
##겁니다
찍었다
정보통신
당첨
특혜
##de
##둬
헌재
면역
대다수
증가율
##寺
어울리
##힘
건축물
가끔
기자들
##one
##됐는데
체크
이정현
불확실성
##朴
##웬
웹툰
금융당국
##받았
##흰
##솜
승무원
쟁점
스님
##꿀
플로리다
##뚱
오프라인
어쩔
백종원
힘들어
꼽히는
##곽
좌석
헌법재판소
무너지
한국영화
##샘
기본적으로
회수
##ob
드러낸
노하우
##age
늘어났다
음력
것인가
추첨
##아파트
충청
무엇이
금요일
진압
구멍
농민
왜곡
##왔지만
뒷받침
베네수엘라
포스트시즌
질량
타석에서
스코어
돌아갔다
YG
경영권
##떨
퇴장
박정희
##밸리
##前
트로피
이동통신
노력하겠다
국회의장
그렇다면
##헐
##자산운용
조선일보
완승
쓰이는
일제히
민정수석
주니어
농촌
Mar
남다른
콜롬비아
잠실야구장
프리미어리그
##선수권대회
잡았
2022
급락
소녀시대
만들어졌다
생길
어렵게
##승째
걸친
##ain
LPGA
##볶
지방선거
피칭
담았다
이뤄질
도와주
##썩
칠레
Pro
##앱
침공
컨트롤
##女
##政
##옌
##흠
웨스트
억울
겨우
KDB
Com
개척
##–
레드카펫
문화체육관광부
##칫
연평균
저지른
##소프트
##슴
벌이는
지냈
##뻐
##男
##西
##짚
깔끔
동대문
부위원장
1946
비대위
생태계
##미사일
1961
산맥
일시적
##캠
##反
생중계
소규모
떠오르
체코
빌보드
Con
사흘
##太
##石
챙겼다
기성용
섭취
세계대전
##成
##늑
##휠
##첼
##京
##家
##院
##쌍
##뷔
##뜬
##田
##行
##빨
##툴
##벳
##뽀
##쑤
##使
##光
##陽
##샵
##못
##府
##生
##뭘
##神
##셸
##옐
##퉁
##돕
##툰
##野
##봄
##룽
##㎏
##궈
##캄
##맷
##끝
##親
##곧
##쥬
##水
##렵
##뿔
##小
##껍
##왈
##쩍
##엣
##Δ
##∙
##民
##武
##숨
##멀
##씻
##멈
##홉
##앗
##主
##줌
##큼
##뿜
##섯
##é
##原
##얽
##핸
##性
##江
##都
##君
##빗
##世
##島
##롯
##삐
##써
##썰
##□
##뱃
##팜
##門
##높
##等
##왓
##本
##非
##퀘
##헛
##쉴
##밸
##㎜
##會
##뜰
##띤
##仁
##늄
##司
##찍
##馬
##짱
##팟
##經
##德
##즌
##촬
##꽁
##덱
##샹
##갖
##近
##옴
##쭉
##헨
##里
##낱
##뜩
##官
##탬
##댐
##郡
##괌
##心
##끔
##씬
##★
##웃
##全
##쪼
##習
##홈
##않
##깜
##냉
##河
##뭄
##％
##젝
##릅
##쿤
##쑥
##찢
##싹
##쥔
##쯔
##잘
##꿈
##껴
##縣
##部
##또
##和
##慶
##а
##⋅
##잣
##晋
##쿵
##딱
##相
##밖
##빅
##興
##빔
##얄
##뜻
##셈
##夫
##펫
##永
##꽉
##理
##龍
##뮬
##깨
##놔
##콰
##五
##白
##知
##不
##℃
##숲
##忠
##漢
##華
##化
##定
##洞
##톈
##덜
##젓
##之
##戰
##둠
##쓴
##方
##갯
##朝
##林
##聖
##똥
##앰
##有
##걀
##멧
##챈
##녹
##쌀
##同
##通
##딛
##흑
##倍
##師
##샐
##캉
##°
##趙
##所
##社
##팍
##챔
##鄭
##딥
##솟
##代
##信
##黨
##샬
##늪
##삽
##①
##記
##松
##슘
##內
##古
##後
##路
##士
##썬
##틈
##눔
##맙
##눅
##꼽
##퐁
##싶
##훼
##냅
##푹
##尹
##張
##껑
##下
##時
##羅
##쿡
##о
##の
##칵
##넛
##늠
##劉
##챙
##②
##皇
##줍
##짠
##將
##떠
##帝
##쏜
##촘
##튬
##낫
##떴
##똘
##낮
##重
##찼
##돗
##쁨
##昌
##쿄
##α
##佛
##堂
##廣
##찜
##吉
##콥
##츄
##ⓒ
##뀔
##權
##씽
##냄
##봅
##늬
##ℓ
##名
##宮
##뜸
##十
##木
##낀
##댓
##分
##論
##빡
##삿
##四
##面
##쉼
##팁
##ｍ
##崔
##핍
##듭
##탠
##市
##自
##е
##郞
##벙
##윅
##뺀
##찮
##톰
##淸
##뛸
##父
##外
##댔
##훙
##밑
##텝
##튀
##村
##黃
##샴
##캣
##랬
##и
##春
##룻
##㎍
##㎥
##寧
##솥
##像
##욘
##二
##福
##귤
##뎌
##九
##陵
##깡
##뺨
##쎄
##治
##者
##＞
##＜
##뛰
##圖
##끌
##孝
##花
##쌈
##物
##덮
##兵
##祖
##禮
##動
##랠
##즙
##別
##與
##英
##身
##챗
##守
##萬
##令
##建
##眞
##谷
##섀
##퀀
##헝
##風
##촨
##樂
##體
##륵
##쉰
##쨌
##댈
##р
##랏
##雲
##③
##合
##周
##멕
##八
##孫
##業
##귄
##롄
##툭
##節
##씹
##잼
##텅
##팻
##衛
##見
##퀵
##곶
##侯
##볕
##初
##字
##洪
##驛
##싯
##н
##利
##議
##탔
##댁
##딤
##ㅣ
##柳
##監
##線
##開
##μ
##•
##吳
##星
##딧
##․
##作
##立
##宋
##的
##엥
##с
##先
##｜
##判
##큘
##텃
##い
##景
##к
##基
##多
##힙
##康
##數
##直
##省
##空
##괘
##왜
##얘
##웜
##章
##윽
##位
##制
##發
##臺
##進
##겟
##몫
##傳
##度
##탭
##챌
##ー
##功
##尙
##웍
##强
##▼
##殿
##濟
##玉
##깬
##뽕
##富
##♥
##六
##벵
##췌
##女
##寶
##津
##源
##鎭
##車
##깁
##몹
##報
##貞
##集
##根
##觀
##훤
##實
##曹
##氣
##界
##色
##눕
##덥
##в
##産
##科
##館
##맴
##얏
##副
##命
##承
##流
##百
##說
##阿
##ü
##壽
##憲
##泰
##젯
##캅
##任
##思
##音
##쫄
##在
##徐
##良
##쏴
##侍
##后
##派
##뎀
##셧
##〃
##志
##셴
##쌌
##컥
##튠
##@
##場
##甲
##鄕
##※
##溪
##陳
##쭈
##훌
##±
##土
##應
##슝
##쏙
##팥
##왼
##典
##延
##式
##愛
##族
##智
##歌
##湖
##頭
##來
##浦
##老
##造
##保
##勝
##申
##땠
##л
##宣
##퉈
##꿔
##口
##死
##禪
##鮮
##쉘
##헥
##意
##敬
##語
##숀
##얕
##꿋
##修
##工
##넉
##帶
##섣
##想
##짤
##－
##奉
##弘
##言
##샨
##숫
##쟈
##力
##雄
##믈
##á
##楊
##用
##썹
##七
##加
##橋
##畵
##私
##起
##쩡
##뫼
##т
##홋
##常
##朱
##異
##達
##쾰
##如
##藤
##許
##唐
##波
##껄
##쑨
##폄
##앳
##Ⅱ
##出
##參
##選
##왁
##짬
##☆
##井
##克
##團
##秀
##땡
##ㅋ
##빼
##렷
##国
##左
##形
##碑
##脫
##켐
##ㅡ
##丁
##商
##御
##護
##둡
##벗
##즉
##ο
##火
##뮈
##캇
##및
##手
##靈
##궂
##닙
##찻
##펭
##넵
##댕
##$
##首
##깅
##렙
##멱
##펩
##ö
##뻘
##컹
##핼
##右
##夏
##梁
##遠
##킵
##헷
##印
##員
##岩
##果
##機
##竹
##轉
##륭
##밧
##м
##共
##千
##嘉
##塔
##察
##惠
##解
##뇽
##꼭
##李
##ン
##욤
##球
##錄
##電
##쁠
##受
##惡
##榮
##現
##λ
##≫
##亭
##因
##得
##從
##禁
##藏
##間
##걱
##찐
##④
##伊
##務
##博
##始
##密
##恩
##沈
##沙
##玄
##運
##묻
##ς
##ㅎ
##器
##舊
##豊
##遺
##銀
##齋
##꽝
##꾹
##밈
##춥
##갸
##我
##船
##處
##佐
##友
##廳
##賢
##뗄
##숏
##얌
##젬
##（
##ا
##△
##í
##○
##丹
##伯
##澤
##營
##祭
##訪
##뵈
##팸
##，
##퓰
##泉
##種
##鳳
##麗
##깍
##맬
##뮌
##局
##復
##益
##角
##錫
##볐
##앴
##쥘
##^
##鶴
##ρ
##넴
##植
##毅
##熙
##管
##鐵
##껌
##랗
##밟
##坐
##烈
##統
##資
##魚
##덫
##可
##結
##試
##貴
##邊
##헴
##入
##區
##半
##瑞
##稅
##郎
##陸
##魏
##놉
##촐
##웹
##う
##■
##奇
##宇
##房
##曲
##防
##뻑
##샛
##쩌
##낄
##ó
##儀
##圈
##園
##提
##晉
##毛
##緣
##育
##蘇
##類
##交
##偉
##域
##室
##杜
##滿
##總
##能
##覺
##財
##갭
##뮐
##슌
##㎢
##俊
##妃
##慧
##港
##特
##第
##系
##赤
##連
##領
##駐
##녜
##뗀
##욜
##챠
##ε
##乙
##次
##環
##純
##群
##菩
##у
##協
##姓
##峰
##燕
##範
##草
##薩
##顯
##食
##줏
##훅
##不
##ν
##な
##\
##ん
##卿
##呂
##容
##廟
##期
##獨
##秦
##쩐
##τ
##と
##↑
##る
##品
##居
##溫
##町
##虎
##閣
##齊
##쑹
##倉
##刑
##圓
##境
##墓
##巖
##望
##檢
##滅
##臨
##舍
##諸
##꼰
##퀼
##굉
##僧
##嚴
##致
##變
##멩
##콴
##少
##盛
##衆
##邑
##ι
##쏠
##イ
##й
##姜
##案
##浩
##精
##署
##術
##뿍
##ā
##뀌
##ス
##久
##價
##吏
##咸
##戶
##支
##敵
##斷
##淵
##目
##聲
##胡
##苦
##調
##퓌
##台
##樹
##表
##警
##陰
##鳥
##좀
##～
##か
##ㅠ
##完
##柱
##極
##計
##超
##農
##낵
##ラ
##低
##增
##好
##巨
##樞
##池
##足
##酒
##雨
##麻
##렝
##엡
##㎎
##尊
##布
##彦
##最
##至
##葉
##靖
##핌
##«
##»
##勳
##夜
##屋
##崇
##求
##牛
##牧
##職
##賀
##郭
##雙
##養
##ä
##ㅇ
##ل
##し
##캥
##丘
##健
##喜
##封
##淳
##翼
##듐
##잰
##휼
##仙
##仲
##備
##再
##尉
##板
##洋
##烏
##珍
##舞
##鍾
##難
##돛
##д
##儒
##岡
##彌
##慈
##改
##放
##深
##然
##聯
##蔡
##贊
##댑
##맸
##볜
##쿰
##찹
##캬
##←
##ま
##㎾
##솽
##ㄱ
##件
##兩
##剛
##址
##客
##害
##律
##感
##比
##病
##誠
##陀
##쳇
##댜
##끗
##κ
##【
##り
##ト
##于
##住
##則
##勢
##普
##淑
##速
##꿍
##쵸
##숯
##³
##—
##Ⅲ
##き
##具
##句
##向
##均
##失
##学
##敏
##斗
##條
##督
##網
##若
##蓮
##藩
##送
##隊
##骨
##뎁
##룹
##듈
##ッ
##뉜
##è
##た
##回
##孔
##庵
##恒
##獻
##祠
##程
##輔
##邦
##웡
##쾨
##σ
##取
##哲
##委
##宜
##惱
##服
##桂
##淨
##翁
##莊
##衣
##詞
##譜
##質
##辛
##量
##限
##雪
##냇
##먀
##샅
##쓱
##¤
##ㄷ
##今
##兼
##助
##型
##庫
##念
##懷
##技
##由
##皮
##筆
##藝
##隆
##뎅
##숄
##쏭
##힝
##ル
##Ⅰ
##ら
##劇
##宅
##岸
##己
##戦
##旗
##梅
##盧
##簡
##聞
##蘭
##象
##載
##離
##餘
##꺽
##맣
##츨
##β
##リ
##π
##я
##亞
##列
##弼
##晩
##格
##欲
##煥
##熊
##狀
##硏
##錦
##閔
##靜
##땜
##뻥
##⑤
##み
##팹
##밉
##δ
##に
##休
##單
##圭
##夢
##射
##末
##樓
##登
##遼
##갠
##듦
##쫑
##홧
##盧
##윷
##ク
##タ
##允
##兒
##恭
##未
##殺
##穆
##約
##街
##要
##醫
##釋
##黑
##겅
##金
##뇰
##틔
##펍
##亂
##冠
##刊
##央
##妙
##威
##孟
##岳
##熱
##爾
##眼
##菅
##誌
##講
##賞
##遊
##냠
##빕
##셍
##텟
##シ
##ç
##ú
##ы
##㏊
##假
##問
##層
##懿
##持
##摠
##散
##敦
##株
##桓
##油
##煩
##素
##考
##藥
##裕
##話
##越
##ن
##′
##ㅅ
##俗
##僉
##卞
##執
##壇
##指
##易
##楚
##演
##祿
##究
##籍
##葬
##規
##貪
##輪
##辭
##銅
##隨
##魯
##點
##龜
##귈
##좡
##兩
##▽
##옆
##떤
##だ
##峴
##希
##席
##干
##征
##微
##慕
##戒
##是
##準
##症
##祐
##移
##積
##細
##肅
##裵
##諫
##過
##雜
##麟
##뚤
##쉑
##텡
##｢
##｣
##뱌
##쿱
##г
##伏
##切
##夷
##展
##嶺
##座
##徳
##摩
##歸
##注
##洲
##珠
##終
##製
##訓
##證
##逆
##邱
##釜
##鴻
##셩
##튈
##К
##넓
##ド
##윳
##つ
##丙
##冬
##匠
##幸
##役
##犯
##祥
##禹
##端
##紅
##茂
##觸
##鏡
##雅
##題
##쌤
##홑
##㎒
##勞
##坂
##尾
##愼
##査
##洙
##甘
##落
##陶
##震
##쟤
##뎬
##γ
##ı
##ㄴ
##乘
##乾
##介
##宰
##寬
##巴
##庭
##影
##振
##歲
##殷
##洛
##県
##綱
##羽
##肉
##蓋
##血
##視
##輸
##쾅
##훠
##힉
##좁
##슷
##η
##お
##以
##会
##勇
##卷
##啓
##專
##尼
##廷
##忍
##渡
##潤
##策
##茶
##襄
##設
##鄧
##겜
##긱
##넝
##ب
##늉
##첫
##п
##て
##ь
##ア
##€
##が
##㎖
##丞
##亨
##倭
##刻
##叔
##墨
##姬
##審
##屬
##必
##才
##森
##減
##當
##疏
##童
##際
##빤
##웁
##젼
##ά
##ω
##ч
##뀐
##っ
##く
##は
##š
##ち
##也
##岐
##差
##施
##核
##活
##浙
##略
##磁
##般
##邪
##뵐
##얍
##젭
##펨
##さ
##핫
##ر
##⑥
##ㄹ
##内
##区
##固
##奎
##推
##擧
##汝
##浪
##清
##琴
##砲
##站
##補
##謙
##輝
##鉉
##阪
##鹿
##굼
##꼿
##띵
##뮴
##헵
##勞
##꿩
##θ
##و
##♡
##す
##ㅈ
##倫
##凉
##創
##告
##存
##寫
##庶
##扶
##旨
##昇
##曾
##染
##構
##浮
##甫
##續
##置
##芳
##蒙
##讀
##退
##銘
##鎬
##눗
##뷴
##훨
##М
##픔
##б
##コ
##ロ
##à
##ί
##味
##喪
##契
##引
##惟
##料
##段
##磨
##秘
##維
##而
##舟
##葛
##蘊
##虛
##談
##辰
##騎
##섶
##탯
##･
##ø
##＝
##キ
##ī
##㎛
##㎿
##亮
##刺
##包
##匡
##厚
##坡
##壁
##就
##廉
##旅
##曺
##梵
##橫
##止
##災
##燈
##盟
##碩
##納
##織
##請
##謝
##貨
##賜
##軒
##輕
##追
##那
##鑑
##隱
##項
##鬼
##꿉
##잽
##쪄
##ό
##쩔
##х
##を
##С
##れ
##何
##兆
##劍
##唱
##季
##崎
##序
##抗
##揚
##援
##材
##条
##梨
##瀋
##獄
##盤
##米
##紙
##紫
##繼
##耶
##背
##贈
##逸
##錢
##附
##頂
##レ
##훗
##촛
##컫
##뒷
##탓
##빚
##밝
##옛
##띄
##곁
##뭐
##삶
##눠
##끊
##몇
##잊
##묀
##쪘
##뼘
##펐
##랖
##떄
##号
##依
##쫀
##쇳
##탉
##뒹
##헉
##옻
##엷
##留
##껐
##똣
##쌩
##닳
##豆
##−
##袁
##組
##〜
##훑
##뻣
##뷸
##텄
##횃
##튤
##셌
##뺄
##잿
##깰
##飛
##½
##숟
##걔
##】
##뼛
##찡
##챕
##윔
##。
##퍽
##짰
##켠
##헹
##녘
##넋
##왠
##얗
##짊
##땃
##켤
##옅
##}
##쐈
##뎠
##텁
##귓
##잤
##爲
##웸
##識
##좇
##{
##秋
###
##：
##튕
##≪
##）
##香
##紀
##읊
##昭
##情
##솎
##關
##띔
##챘
##뺐
##엌
##썽
##뵙
##윕
##깼
##텼
##빴
##츰
##슭
##떳
##춧
##뺑
##긁
##씁
##숱
##궜
##詩
##號
##빽
##뾰
##튿
##팠
##짖
##뗐
##뻤
##順
##、
##굶
##뱉
##텨
##月
##폈
##끽
##땄
##臣
##틋
##띈
##`
##年
##맏
##늙
##敎
##벚
##낡
##史
##씌
##싣
##엎
##꿰
##善
##뺏
##母
##탤
##엮
##꿇
##덟
##얇
##흩
##팰
##靑
##꾀
##닦
##탰
##뛴
##뜯
##몄
##넸
##얹
##뻗
##굵
##밌
##갇
##횟
##꽂
##옳
##・
##잦
##―
##쐐
##샀
##짙
##됩
##書
##딪
##낚
##깥
##볍
##낯
##눴
##꿨
##퀄
##앓
##뭔
##＂
##닿
##』
##美
##갚
##뚝
##녔
##뤘
##뚫
##꼼
##뽐
##팎
##王
##日
##릎
##휩
##|
##꼈
##싫
##괜
##붉
##」
##묶
##컸
##캘
##씀
##걷
##낳
##굳
##똑
##*
##닫
##녁
##;
##꺾
##+
##낌
##읽
##쏟
##”
##“
##쌓
##앉
##맺
##젊
##늦
##뽑
##〉
##>
##옮
##잃
##깊
##=
##‘
##’
##떻
##!
##[
##]
##넣
##_
##멤
##켰
##섰
##웠
##얻
##…
##펼
##/
##맡
##?
##:
##》
##찾
##맞
##~
##많
##%
##-
##·
##)
##(
##'
##"
##,
##.
!
#
$
&
*
+
;
<
=
>
@
\
^
`
e
g
i
j
k
l
n
o
q
r
u
v
x
y
z
{
|
}
ㄱ
ㄲ
##ㄲ
ㄳ
##ㄳ
ㄴ
ㄵ
##ㄵ
ㄶ
##ㄶ
ㄷ
ㄸ
##ㄸ
ㄹ
ㄺ
##ㄺ
ㄻ
##ㄻ
ㄼ
##ㄼ
ㄽ
##ㄽ
ㄾ
##ㄾ
ㄿ
##ㄿ
ㅀ
##ㅀ
ㅁ
##ㅁ
ㅂ
##ㅂ
ㅃ
##ㅃ
ㅄ
##ㅄ
ㅅ
ㅆ
##ㅆ
ㅇ
ㅈ
ㅉ
##ㅉ
ㅊ
##ㅊ
ㅋ
ㅌ
##ㅌ
ㅍ
##ㅍ
ㅎ
ㅏ
##ㅏ
ㅐ
##ㅐ
ㅑ
##ㅑ
ㅒ
##ㅒ
ㅓ
##ㅓ
ㅔ
##ㅔ
ㅕ
##ㅕ
ㅖ
##ㅖ
ㅗ
##ㅗ
ㅘ
##ㅘ
ㅙ
##ㅙ
ㅚ
##ㅚ
ㅛ
##ㅛ
ㅜ
##ㅜ
ㅝ
##ㅝ
ㅞ
##ㅞ
ㅟ
##ㅟ
ㅠ
ㅡ
ㅢ
##ㅢ
ㅣ
ᄀ
##ᄀ
ᄁ
##ᄁ
ᄂ
##ᄂ
ᄃ
##ᄃ
ᄄ
##ᄄ
ᄅ
##ᄅ
ᄆ
##ᄆ
ᄇ
##ᄇ
ᄈ
##ᄈ
ᄉ
##ᄉ
ᄊ
##ᄊ
ᄋ
##ᄋ
ᄌ
##ᄌ
ᄍ
##ᄍ
ᄎ
##ᄎ
ᄏ
##ᄏ
ᄐ
##ᄐ
ᄑ
##ᄑ
ᄒ
##ᄒ
ᅡ
##ᅡ
ᅢ
##ᅢ
ᅣ
##ᅣ
ᅤ
##ᅤ
ᅥ
##ᅥ
ᅦ
##ᅦ
ᅧ
##ᅧ
ᅨ
##ᅨ
ᅩ
##ᅩ
ᅪ
##ᅪ
ᅫ
##ᅫ
ᅬ
##ᅬ
ᅭ
##ᅭ
ᅮ
##ᅮ
ᅯ
##ᅯ
ᅰ
##ᅰ
ᅱ
##ᅱ
ᅲ
##ᅲ
ᅳ
##ᅳ
ᅴ
##ᅴ
ᅵ
##ᅵ
ᆨ
##ᆨ
ᆩ
##ᆩ
ᆪ
##ᆪ
ᆫ
##ᆫ
ᆬ
##ᆬ
ᆭ
##ᆭ
ᆮ
##ᆮ
ᆯ
##ᆯ
ᆰ
##ᆰ
ᆱ
##ᆱ
ᆲ
##ᆲ
ᆳ
##ᆳ
ᆴ
##ᆴ
ᆵ
##ᆵ
ᆶ
##ᆶ
ᆷ
##ᆷ
ᆸ
##ᆸ
ᆹ
##ᆹ
ᆺ
##ᆺ
ᆻ
##ᆻ
ᆼ
##ᆼ
ᆽ
##ᆽ
ᆾ
##ᆾ
ᆿ
##ᆿ
ᇀ
##ᇀ
ᇁ
##ᇁ
ᇂ
##ᇂ
£
®
µ
Å
Æ
È
É
Ö
Þ
à
á
â
ã
å
æ
ç
è
é
ê
ë
ì
í
î
ï
ñ
ò
ó
ô
õ
ø
ù
ú
ü
þ
ā
ă
ą
č
ē
ė
ę
ğ
ı
ĵ
ł
ń
ŋ
ō
ś
ş
Š
ū
ų
ǎ
ǐ
ǒ
ǔ
ǣ
Ǫ
ǫ
ɑ
ɔ
ɛ
ɜ
ɪ
ɴ
ɾ
ʁ
ʃ
ʊ
ʒ
ʔ
ʰ
ʿ
ˈ
ˌ
˙
ˠ
̯
Ά
Έ
Β
Γ
Δ
Ε
Ζ
Κ
Λ
Μ
Π
Σ
ά
έ
ή
ί
γ
δ
θ
μ
τ
υ
ϊ
ό
ύ
ώ
А
Б
В
Г
Д
Е
И
К
Л
М
Н
О
П
Р
С
Т
У
Ч
Ю
а
б
в
г
д
е
ж
з
и
й
к
л
м
н
о
п
р
с
т
у
ф
х
ц
ч
ш
ъ
ы
ь
э
ю
я
ḥ
ẓ
Ấ
ầ
ậ
ễ
ệ
ố
ἀ
ἐ
ἔ
Ἑ
Ἴ
ὑ
ὒ
ὕ
ὰ
ὶ
ᾶ
ῶ
‑
―
‘
’
„
†
․
′
″
⁴
€
℃
℉
ℓ
Ⅲ
Ⅳ
Ⅵ
⇒
∂
∑
−
≈
≪
≫
⑤
⑧
⑨
⑩
⑴
⑵
⑶
⑷
⑸
⑺
⑻
●
☉
♭
♯
々
〜
ヘ
ㇼ
㙫
㝡
㦳
㺚
丁
丈
与
丑
且
丕
丞
両
两
並
丹
乘
乞
书
乱
亀
争
于
互
井
交
亥
亦
亨
京
亶
什
仇
今
付
仙
仰
仲
伋
伍
伎
伐
休
会
伝
伯
伴
伸
似
伾
但
体
何
余
佟
佩
佳
佶
佾
侃
來
供
依
侯
俄
俊
俔
俗
俠
修
俱
俳
倉
倍
倒
借
倪
倫
倶
偉
停
健
側
偶
傒
傭
傳
傷
僉
像
僐
僑
僕
僖
僧
僴
價
儉
償
優
儲
兀
允
充
克
兎
兜
入
兩
兪
八
其
具
冀
内
再
冒
冠
冥
冬
冯
冷
准
凉
凌
凍
凝
凶
出
函
刊
列
别
到
刺
則
剋
剩
割
創
剿
劃
劇
劍
努
労
勃
勒
勛
勞
勢
勤
勲
勳
包
匠
匡
匹
区
升
半
华
卑
卓
卜
卞
占
卯
危
即
卵
卷
卽
卿
厄
原
厳
去
参
參
叔
叛
叟
叢
口
句
叩
可
台
号
吃
各
吉
吊
吏
吐
吟
否
含
吳
吸
吹
吾
呂
告
周
呼
咋
咎
咸
哀
哈
員
哥
哭
唊
唱
啄
問
啓
喀
喊
喣
喪
喬
單
喻
嗣
嘆
噶
回
园
囲
固
圍
園
圓
圳
址
坂
坐
坤
坦
坪
垂
垢
埈
域
埴
執
培
堅
堆
堉
堡
堤
堪
堯
報
塊
塋
塔
塚
塡
塤
塽
塾
墉
墓
増
墟
墨
墳
墻
墾
壁
壇
壤
士
壯
壹
壻
备
复
夕
夜
夭
央
失
夷
奄
奇
奈
奉
奎
奏
契
奕
奢
奥
奮
奴
奵
奸
妄
妒
妓
妖
妣
妻
始
姜
姪
姫
姬
姿
威
娘
婚
婢
婿
媛
嫁
嫉
嫡
嬖
嬴
孔
孟
季
孤
学
宇
宏
宕
宙
宜
宝
実
宣
室
宰
害
宴
宸
宿
寂
密
寇
寒
寛
寡
審
寫
寬
寮
寵
寶
寸
対
封
射
将
將
尉
導
尔
就
尸
尼
局
居
屈
屋
展
屛
屠
層
屬
屯
岐
岑
岩
岾
峠
峯
峴
峻
崎
崖
崙
嵩
嶺
嶼
巡
巫
己
已
巴
巾
布
帖
帥
帳
帶
幕
干
幹
幼
幽
庁
広
床
序
应
底
店
庚
庶
庸
庾
廈
廉
廊
廛
廟
廠
廷
弑
弓
弔
引
弘
弛
弟
张
弥
弦
弱
弼
彌
当
彗
形
彧
彪
彫
彭
役
彼
征
徒
徙
從
御
微
徳
徵
忌
志
忘
応
快
忽
怖
怡
怨
怪
恊
恋
恐
恒
恕
恤
恩
恭
息
恵
悅
患
悰
悳
惛
惟
愁
愍
愚
愴
愿
態
慕
慣
慵
慾
憂
憐
憧
憬
懋
懌
懸
懼
懿
戊
或
战
戚
戦
戱
戲
戶
戸
扈
托
扶
批
抄
把
抗
折
抱
押
拆
拍
拏
拓
招
拜
拝
拠
拳
拾
指
按
挑
振
挺
挾
挿
捕
掉
掛
掠
接
控
推
提
揚
換
揭
揮
援
損
撃
撓
撤
撫
撮
撰
撻
擁
擇
擔
據
擲
擾
攝
支
收
放
效
敍
救
敞
敢
散
敦
敷
斂
斐
斑
斗
料
斛
斫
斯
於
施
旅
旌
族
旗
旣
旧
旨
早
旱
旺
旽
昀
昆
昇
昉
昊
昐
昔
昧
昨
昱
晉
晋
晏
晟
晦
晩
晷
暉
暗
暢
暦
暹
暾
曔
曙
曜
曹
曺
曼
曽
曾
替
服
朮
术
朱
材
杖
束
条
来
杬
杰
杻
板
枚
枝
架
柄
柏
柔
柯
柴
査
栄
栗
校
格
桂
桃
桑
桓
桱
桿
梁
梅
條
梨
械
棋
棟
棺
植
検
楊
楔
楚
楡
楫
楯
楽
榘
榛
榮
槃
構
槿
樊
樑
樞
模
樣
権
横
樫
樹
橘
機
檀
次
欽
款
歎
止
歴
歸
殊
殘
殷
殺
殼
殿
毀
毁
毅
每
毒
毓
比
毛
気
氷
汀
汚
汝
汧
汪
沔
沙
沢
沭
油
沿
泉
泊
泛
波
泥
注
泳
洁
洛
津
洲
洵
活
济
浙
浚
浜
浩
浮
浴
涅
消
液
涼
淀
淑
淙
深
混
清
済
渋
渠
渤
渦
温
測
渭
港
渴
游
湊
湘
湛
湜
湯
満
準
溝
溢
溥
溪
溫
溯
溶
滄
滋
滝
滨
滸
滿
漏
漑
漪
漫
潔
潘
潢
潤
潮
潼
澈
澗
澳
澹
濁
濉
濠
濤
濩
濮
濱
瀋
瀛
瀨
灌
灰
災
炫
炭
炳
点
為
烏
烽
焞
焰
然
焼
煕
煙
照
煬
熟
熹
燁
燒
燕
營
燦
燭
燮
燿
爀
爆
爚
爛
爭
爵
爺
爾
片
牌
牟
犖
犬
犯
狀
狂
狐
狙
狭
狴
狹
狼
猫
猷
猿
獄
獲
獻
玆
率
玉
玖
环
珅
珊
珍
珏
珓
珖
珠
班
琅
琉
琪
琬
琮
琰
琴
琵
琶
琿
瑀
瑚
瑟
瑪
瑯
瑺
璉
璘
璜
環
璹
璽
瓚
瓣
甄
甕
甘
產
由
町
留
畜
畠
畢
略
畷
畿
疆
疇
疎
疫
疾
病
症
療
癸
発
登
百
皓
皮
皴
益
盛
盜
盟
盡
盤
盧
県
真
眠
眼
眾
督
睦
睿
瞿
矛
矩
短
矯
砂
砣
砲
硬
碁
碑
碧
碩
確
磅
磐
磨
磬
礁
礎
礖
礼
礽
祀
祁
祇
祐
祔
祚
祜
祝
祠
祢
祥
票
祭
祺
祿
禄
禅
禎
禔
禛
禦
禧
禩
禰
禵
禹
禽
秉
秋
秘
租
秦
秩
移
稔
稗
稙
稜
稟
稱
稷
稿
穗
穢
穩
穫
究
穹
穿
突
窒
窮
窯
站
竜
竝
竟
童
竺
笙
笛
第
筆
筋
筑
答
策
筮
箋
箏
箕
算
箚
箭
箱
範
篆
篤
簇
簡
簫
籍
米
粧
粹
精
糧
糾
紀
紂
約
紋
納
純
級
素
索
紫
絃
組
経
結
絡
絢
給
絲
絵
絿
綏
継
続
綠
綬
維
綰
綱
綸
綺
綽
綾
綿
緋
総
線
緣
編
緯
練
緻
縦
縮
總
績
繁
織
繕
繡
繪
繼
續
纲
续
编
缶
置
署
羅
羊
羞
羣
群
羲
羹
羽
翁
翊
習
翠
翰
翼
耀
考
耆
而
耐
耕
耗
耿
聃
聘
聞
聯
聰
聴
肇
肉
肖
肝
肥
胃
胆
背
胎
胡
胤
胥
脂
脈
脊
脚
腑
腰
腹
膝
膠
臟
臥
臨
至
與
舌
舍
舎
舜
舞
舟
航
般
良
艶
艺
艾
芈
芑
花
芳
苑
苛
若
茂
茎
茫
茶
荇
荊
荒
莊
莖
莘
莞
莫
莽
菁
菌
菜
萄
萌
萱
葛
葡
葬
葭
葺
蒙
蒲
蓮
蔓
蔚
蔡
蔬
蔭
蔵
蔽
蔿
蕃
蕆
蕩
薈
薔
薪
藍
藤
藥
藪
藻
蘆
蘇
蘭
虐
虛
虜
虞
虫
蛆
蜂
蜜
蝕
蝦
蝨
融
蠟
衆
衍
術
衙
衝
衡
衢
衣
补
衰
袖
裁
装
裏
裔
補
襄
襲
覆
観
覽
览
角
計
討
訣
訥
訪
設
註
証
詔
評
詞
詠
詩
詳
詹
誅
誌
誕
誥
說
説
誰
誼
誾
調
談
請
諡
諦
諧
諭
諺
諾
諿
謂
謄
謔
謙
謠
謨
譚
譜
警
譯
譽
讀
讚
误
谋
谷
谿
豉
豐
豚
豪
豫
豰
貝
負
財
貢
貫
貯
買
貸
貼
賀
賁
賊
賑
賓
賚
賜
賤
賦
質
賴
賻
贈
贖
走
超
越
趙
足
趾
跋
跌
距
跡
跪
路
踊
蹄
蹟
蹶
軒
軟
転
軾
輓
輕
輝
輟
輪
輯
輿
轄
轍
轩
辞
辦
辭
辯
辰
近
返
连
迭
述
退
逆
途
速
造
逢
連
逸
遁
遇
遊
遍
違
遣
遥
遮
遲
選
遺
遼
避
還
邑
邦
邱
邵
邸
郊
郡
郵
鄂
鄒
鄕
鄜
鄧
酉
配
酒
醉
醍
醐
醜
醬
采
鈔
鈕
鈞
鉄
鉅
鉉
鉛
鉴
銅
銓
銘
鋸
鋼
錆
錦
鍊
鍮
鍼
鍾
鎌
鎔
鎖
鎣
鎧
鎰
鏜
鏞
鏡
鏤
鐵
鑒
鑛
镌
閑
閔
閡
関
閱
闔
闖
闥
阙
阪
阮
阿
陀
附
陈
降
限
陛
陟
陣
陰
陵
陶
隃
隈
隊
隕
際
障
隱
隷
隸
雅
雍
雑
雖
雙
雜
雪
雲
雷
需
震
霖
霜
靑
靖
静
靜
革
靳
鞍
鞠
鞭
韦
韬
音
韻
響
項
須
頌
預
領
頼
題
額
顎
顒
顕
願
顚
顛
類
顧
飜
食
飮
飯
飽
飾
養
餐
餘
館
饌
馬
馮
駆
駐
駕
駿
騎
騒
驍
驗
驤
驥
髙
鬪
鬼
魏
魚
魯
鮎
鮮
鯨
鱗
鲜
鳴
鴻
鵬
鶯
鶴
鷄
鷹
鷺
鸞
鹵
鹿
麋
麟
麥
麻
麼
麾
黄
黑
默
黜
點
鼎
鼻
齋
齒
齡
龔
龕
龜
갅
갇
갉
갋
갓
갔
갗
갘
갚
갛
객
갠
갤
갬
갭
갯
갰
갱
갵
갸
갹
걀
걈
걍
걑
걔
걘
걱
걲
걷
겁
겂
겄
겅
겈
겉
겋
겐
겓
겔
겜
겝
겟
겠
겡
겤
겧
겨
겹
겻
겼
곀
곃
곅
곗
곘
곤
곪
곯
곰
곱
곶
곷
곸
곻
괄
괌
괘
괜
괞
괭
괵
괸
괼
굉
굘
굣
굯
굳
굵
굶
굷
굼
굽
굿
궂
궅
궈
궉
궐
궛
궤
궬
귄
귈
귐
귓
귘
규
귝
균
귤
귬
귯
귱
귻
귿
긁
긋
긍
긑
긔
긛
긬
긱
깁
깃
깄
깅
깇
깈
깉
깊
까
깍
깎
깐
깔
깖
깜
깝
깞
깟
깠
깡
깢
깤
깥
깩
깬
깰
깸
깹
깻
깼
깽
꺄
꺅
꺆
꺇
꺍
꺙
꺜
꺠
꺤
꺽
꺾
껀
껃
껄
껌
껍
껏
껐
껑
껒
께
껜
껫
껬
껭
껰
껴
껸
꼅
꼇
꼈
꼍
꼐
꼬
꼮
꼰
꼳
꼴
꼼
꼿
꽁
꽂
꽄
꽈
꽉
꽝
꽤
꽥
꽦
꽹
꾀
꾄
꾱
꾹
꾼
꾿
꿀
꿇
꿉
꿋
꿍
꿎
꿐
꿑
꿓
꿔
꿘
꿧
꿨
꿩
꿬
꿰
뀌
뀐
뀜
뀝
뀨
뀩
뀰
뀼
끄
끅
끆
끈
끋
끎
끓
끔
끕
끗
끙
끚
끠
끽
끾
낀
낄
낌
낍
낏
낑
낔
낚
낛
낞
낟
낡
납
낫
났
낭
낯
낰
낱
낲
낳
냄
냅
냇
냈
냊
냌
냐
냑
냔
냘
냠
냣
냥
냨
냬
넀
넉
넋
넌
널
넒
넖
넗
넙
넛
넜
넝
넢
넣
넥
넨
넫
넬
넴
넵
넷
넹
넼
넿
녀
녁
년
녈
념
녓
녕
녘
녿
놃
놈
놉
놋
놑
놔
놕
놘
놜
놧
놨
놬
뇔
뇨
뇬
눅
눊
눌
눔
눕
눙
눠
눼
뉘
뉠
뉨
뉩
늄
늉
늑
늙
늠
늡
늣
늦
늨
늪
늬
늰
늴
닁
닉
닊
닌
닏
닐
님
닙
닛
닝
닟
닠
닢
닥
닦
닫
닭
닮
닯
닳
닷
닺
닻
닼
닿
댁
댄
댇
댈
댐
댑
댓
댔
댕
댘
댜
댠
댣
댬
댰
댸
던
덛
덤
덥
덧
덨
덩
덫
덯
덱
덴
덷
델
뎀
뎁
뎃
뎅
뎈
뎋
뎌
뎍
뎐
뎜
뎟
뎡
뎨
돋
돔
돕
돗
돛
돜
돝
돟
돠
돤
돱
됀
됄
됌
됏
됨
됩
됫
됬
됭
됴
됻
둑
둠
둣
둥
둬
뒀
뒈
뒌
뒬
뒹
듀
듁
득
든
듣
듦
듧
듨
듬
듭
듴
듵
듸
딍
딕
딘
딛
딜
딤
딥
딧
딨
딩
딪
딫
딬
딮
딲
딴
땀
땁
땃
땄
땈
땋
땍
땐
땓
땔
땜
땝
땟
땠
땡
땨
땸
떄
떈
떌
떔
떙
떡
떤
떫
떰
떱
떳
떴
떵
떻
떼
떽
뗀
뗄
뗏
뗐
뗬
뗴
뗼
똑
똔
똗
똘
똠
똥
똬
똭
똴
뙀
뙁
뙇
뚜
뚝
뚠
뚤
뚫
뚬
뚯
뚱
뛴
뛸
뜀
뜁
뜌
뜨
뜩
뜬
뜯
뜰
뜷
뜸
뜹
뜽
띀
띈
띌
띔
띕
띠
띡
띤
띨
띰
띱
띵
락
란
랃
랄
람
랍
랏
랐
랑
랒
랔
래
랙
랜
랟
랠
램
랫
랬
랭
랰
랴
략
랸
랽
럈
량
럔
럤
러
럭
런
럴
럼
럽
럾
럿
렀
렁
렇
렉
렌
렐
렘
렙
렛
렜
렝
렠
려
력
련
렬
렴
렵
렷
렸
령
렿
례
롁
롄
론
롬
롭
롯
롱
롴
롷
롸
롹
뢀
뢈
뢉
뢍
뢔
뢰
뢴
뢸
룀
료
룔
룕
룡
룩
룬
룯
룰
룸
룹
룻
룽
뤄
뤌
뤘
뤠
뤡
뤰
뤼
뤽
륀
륄
륌
륒
륙
륜
률
륨
륭
르
륵
른
륺
름
릅
릇
릉
릋
릌
릎
릏
릐
릣
릭
린
릳
릴
림
립
릿
링
맂
맄
맍
많
맏
맑
맗
맘
맙
맜
맞
맟
맠
맡
맣
맬
맴
맵
맷
맸
맺
맻
먀
먄
먠
먼
멈
멉
멋
멌
멍
멎
멐
멓
멕
멘
멜
멤
멥
멧
멩
멱
멸
몀
몃
몄
몆
몌
몬
몹
몽
뫁
뫄
뫘
뫼
묀
묄
묏
묑
묠
묨
묭
묶
묽
묾
뭄
뭅
뭇
뭉
뭍
뭏
뭔
뭘
뭡
뭣
뭥
뭨
뭬
뮁
뮈
뮌
뮐
뮤
뮨
뮬
므
믄
믈
믐
믓
믕
믜
믹
믺
믿
밈
밉
밋
밌
밍
밎
밐
밓
밗
밣
밧
밨
밪
밫
밬
밭
밴
밷
밸
뱀
뱁
뱃
뱄
뱅
뱆
뱉
뱌
뱍
뱎
뱐
뱔
벅
벋
벙
벚
벡
벰
벳
벴
벵
벸
벼
볍
볏
볐
볓
볔
볕
볘
볜
볠
볶
볹
볻
봅
봇
봈
봊
봑
봘
봙
봣
봫
봬
봭
봴
봵
뵀
뵈
뵌
뵐
뵙
뵛
뵜
뵤
뵨
뵹
붅
붆
붇
붉
붐
붑
붓
붕
붜
붸
붹
뷁
뷃
뷐
뷔
뷜
뷰
뷴
뷸
븀
븅
븍
븐
븜
븟
븡
븨
븬
빂
빋
빔
빕
빙
빝
빠
빡
빢
빤
빰
빳
빵
빻
빽
뺀
뺄
뺌
뺍
뺏
뺐
뺑
뺒
뺘
뺠
뺨
뺴
뺵
뻉
뻐
뻑
뻔
뻗
뻘
뻡
뻣
뻥
뻬
뻭
뻴
뼈
뼉
뼘
뼛
뼜
뽀
뽁
뽄
뽈
뽐
뽑
뽕
뽜
뽠
뽯
뽱
뾰
뿅
뿌
뿍
뿔
뿜
뿡
뿨
뿩
뿰
쀍
쀨
쀼
쁘
쁜
쁠
쁨
쁩
삐
삑
삔
삘
삤
삥
삭
삳
삵
삻
삽
삿
샀
샅
샊
샌
샐
샙
샛
샜
샠
샡
샣
샥
샨
샬
샴
샵
샷
샹
샾
섀
섕
섞
섣
섥
섫
섭
섯
섰
섲
섳
섴
섷
섹
섻
섿
셉
셋
셌
셍
셐
셑
셔
셕
션
셜
셤
셧
셨
셩
셰
셴
셸
솀
솁
솅
솎
솓
솜
솝
솟
솢
솤
솥
솧
솨
솬
솰
쇄
쇠
쇤
쇳
숀
숄
숍
숏
숑
숟
숩
숫
숭
숯
숰
숱
숴
숼
쉅
쉈
쉐
쉑
쉔
쉘
쉡
쉣
쉥
쉩
쉭
쉰
쉴
쉼
쉽
쉿
슁
슉
슌
슐
슘
슛
슝
슠
슥
슨
슭
슲
슴
습
슷
슺
슼
슽
슾
싀
싄
싐
싑
싖
싡
싢
싣
싫
십
싯
싰
싱
싴
싷
싹
싼
쌈
쌉
쌌
쌓
쌔
쌕
쌘
쌜
쌤
쌩
쌰
썅
썌
썜
썡
썩
썪
썬
썰
썸
썻
썼
썽
쎀
쎄
쎅
쎈
쎌
쎔
쎗
쎘
쎠
쎤
쎴
쎼
쏔
쏘
쏙
쏜
쏟
쏨
쏩
쏫
쏭
쏱
쏴
쐈
쐌
쐐
쐬
쑈
쑝
쑤
쑥
쑨
쑬
쑴
쑵
쑹
쒀
쒕
쒜
쒯
쒰
쒸
쓉
쓔
쓕
쓱
씀
씁
씌
씐
씝
씩
씪
씬
씯
씰
씸
씹
씻
씼
씽
앀
앉
앋
앍
앎
앓
앖
앗
았
앚
앜
앟
앨
앰
앳
앵
앸
얀
얄
얇
얉
얌
얍
얏
얐
얔
얕
얗
얘
얙
얜
억
언
얹
얺
얻
얽
업
엇
었
엉
엊
엌
엎
엏
엑
엓
엡
엣
엥
엨
엪
엮
엷
엽
엾
엿
였
옂
옄
옅
옇
옌
옐
옘
옙
옜
옭
옮
옯
옰
옳
옴
옵
옶
옹
옻
옼
옿
왁
왃
왅
왈
왐
왑
왓
왘
왝
왠
왤
왱
왼
욀
욈
욌
욘
욜
욤
욥
욧
욬
욯
욱
욷
욹
욺
움
웁
웄
웅
웍
월
웜
웟
웠
웡
웤
웨
웩
웬
웰
웸
웻
웽
윀
윅
윌
윔
윖
윗
윘
윙
율
윰
윱
융
윷
으
윽
읃
을
읅
읊
읍
읎
읏
읔
읖
읗
읜
읭
읮
읹
읺
읽
읿
잃
잇
잉
잌
잎
잏
잖
잗
잛
잣
잤
잦
잫
잭
잰
잴
잼
잽
잿
쟀
쟁
쟈
쟉
쟌
쟎
쟘
쟙
쟝
쟞
쟤
쟨
쟾
젅
젆
젇
젊
젋
젓
젔
젖
젛
젝
젠
젤
젬
젭
젯
젱
져
젹
젼
졀
졈
졉
졋
졌
졍
졎
졏
졔
족
졷
졸
좃
좆
좇
좉
좊
좋
좍
좐
좔
좝
좠
좡
좢
좨
죈
죗
죙
죠
죤
죨
죳
죴
죵
죶
죷
죸
죻
줌
줍
줏
줗
줘
줠
줫
줬
줭
줮
줴
줸
쥇
쥑
쥔
쥘
쥣
쥤
쥬
쥰
쥴
쥼
즁
즈
즌
즐
즘
즙
즛
즞
즤
짂
짇
짊
짏
짖
짘
짙
짚
짛
짝
짠
짢
짤
짦
짧
짫
짬
짭
짯
짰
짱
짴
째
짹
짼
쨈
쨉
쨋
쨌
쨍
쨓
쨔
쨩
쨰
쩁
쩃
쩄
쩌
쩍
쩐
쩔
쩖
쩜
쩝
쩡
쩧
쩨
쪄
쪈
쪘
쪙
쪠
쪼
쪾
쫀
쫄
쫌
쫍
쫏
쫑
쫒
쫓
쫗
쫘
쫙
쫭
쬐
쬔
쬘
쬬
쭁
쭈
쭉
쭊
쭌
쭐
쭘
쭙
쭝
쭤
쮜
쮸
쯔
쯗
쯤
쯥
쯧
쯩
쯪
찌
찎
찐
찔
찜
찝
찟
찡
찢
찧
찮
찯
찰
찱
찹
찻
찼
찾
찿
챃
챈
챌
챔
챕
챗
챘
챙
챠
챡
챤
챦
챨
첨
첩
첬
첮
첵
첸
첼
쳅
쳇
쳉
쳔
쳣
쳤
쳥
쳬
촌
촏
촐
촘
촙
촛
촟
촣
촤
촥
촬
촹
쵀
쵁
쵝
쵸
쵼
춋
춌
춘
춥
춰
춴
춸
췃
췄
췌
췟
췬
췻
츄
츈
츙
츠
츤
츨
츰
츳
층
츼
츽
칀
칙
칝
칟
칡
칩
칫
칰
칵
칻
캄
캅
캇
캉
캍
캑
캔
캘
캠
캡
캢
캣
캥
캬
캭
컄
컥
컬
컴
컵
컷
컸
컹
켁
켄
켈
켐
켑
켓
켕
켜
켠
켤
켬
켭
켯
켰
콕
콤
콥
콧
콬
콮
콯
콰
콱
콴
콸
쾅
쾌
쾡
쾨
쾰
쿄
쿡
쿤
쿨
쿰
쿱
쿳
쿵
쿸
쿼
퀀
퀄
퀘
퀜
퀭
퀴
퀵
퀸
퀼
큇
큐
큔
큠
큭
큼
큽
킁
킄
킈
킌
킥
킨
킬
킴
킵
킷
킹
킼
탁
탆
탉
탑
탔
탕
탗
탠
탤
탬
탭
탯
탱
탸
턀
턱
턴
텀
텁
텃
텄
텅
텈
텍
텔
템
텝
텟
텡
텨
톈
톡
톤
톨
톳
톺
톼
퇄
퇘
툥
툭
툰
툴
툼
툽
툿
퉁
퉜
퉤
퉷
튄
튈
튕
튜
튠
튭
튼
튿
틉
틍
틐
틔
틱
틴
틸
팁
팅
팍
팜
팟
팠
팡
팥
팩
팰
팸
팹
팻
팼
팽
퍽
펀
펄
펌
펍
펏
펑
펙
펠
펨
펩
펫
펭
펴
펼
폄
폇
폈
폰
폼
폽
폿
퐁
퐈
퐉
퐌
퐛
퐝
퐠
푀
푄
푈
푱
푹
푼
풉
풋
풓
풔
풕
풩
풰
퓌
퓨
퓬
퓰
퓸
퓽
픈
픔
픕
픽
핀
핌
핍
핏
핑
핕
핛
핟
핡
핣
핥
핦
핧
핬
핮
핯
핰
핱
핳
핶
핸
핻
핼
햄
햅
햇
햌
햏
햐
햝
햤
헀
헉
헏
헐
헑
험
헙
헛
헝
헠
헣
헥
헨
헴
헵
헷
헸
헹
헿
혀
혁
혐
혓
혔
혖
홉
홋
홑
홓
확
홥
홧
홪
홬
홯
홰
홱
횃
회
획
횐
횔
횟
횡
횤
횬
횽
훃
훅
훈
훋
훌
훑
훓
훔
훕
훗
훙
훟
훠
훡
훤
훨
훸
훼
휏
휙
휜
휠
휨
휩
휫
휸
휼
흄
흉
흏
흔
흗
흘
흙
흝
흠
흡
흣
흨
흩
흫
흭
흰
흳
히
힉
힌
힙
힛
힝
힣
／
；
＝
##£
##®
##µ
##Å
##Æ
##È
##É
##Ö
##Þ
##â
##ã
##å
##æ
##ê
##ë
##ì
##î
##ï
##ñ
##ò
##ô
##õ
##ù
##þ
##ă
##ą
##č
##ē
##ė
##ę
##ğ
##ĵ
##ł
##ń
##ŋ
##ō
##ś
##ş
##Š
##ū
##ų
##ǎ
##ǐ
##ǒ
##ǔ
##ǣ
##Ǫ
##ǫ
##ɑ
##ɔ
##ɛ
##ɜ
##ɪ
##ɴ
##ɾ
##ʁ
##ʃ
##ʊ
##ʒ
##ʔ
##ʰ
##ʿ
##ˈ
##ˌ
##˙
##ˠ
##̯
##Ά
##Έ
##Β
##Γ
##Ε
##Ζ
##Κ
##Λ
##Μ
##Π
##Σ
##έ
##ή
##υ
##ϊ
##ύ
##ώ
##А
##Б
##В
##Г
##Д
##Е
##И
##Л
##Н
##О
##П
##Р
##Т
##У
##Ч
##Ю
##ж
##з
##ф
##ц
##ш
##ъ
##э
##ю
##ḥ
##ẓ
##Ấ
##ầ
##ậ
##ễ
##ệ
##ố
##ἀ
##ἐ
##ἔ
##Ἑ
##Ἴ
##ὑ
##ὒ
##ὕ
##ὰ
##ὶ
##ᾶ
##ῶ
##‑
##„
##†
##″
##⁴
##℉
##Ⅳ
##Ⅵ
##⇒
##∂
##∑
##≈
##⑧
##⑨
##⑩
##⑴
##⑵
##⑶
##⑷
##⑸
##⑺
##⑻
##☉
##♭
##♯
##々
##ヘ
##ㇼ
##㙫
##㝡
##㦳
##㺚
##丈
##与
##丑
##且
##丕
##両
##两
##並
##乞
##书
##乱
##亀
##争
##互
##亥
##亦
##亶
##什
##仇
##付
##仰
##伋
##伍
##伎
##伐
##伝
##伴
##伸
##似
##伾
##但
##体
##余
##佟
##佩
##佳
##佶
##佾
##侃
##供
##俄
##俔
##俠
##俱
##俳
##倒
##借
##倪
##倶
##停
##側
##偶
##傒
##傭
##傷
##僐
##僑
##僕
##僖
##僴
##儉
##償
##優
##儲
##兀
##充
##兎
##兜
##兪
##其
##冀
##冒
##冥
##冯
##冷
##准
##凌
##凍
##凝
##凶
##函
##别
##到
##剋
##剩
##割
##剿
##劃
##努
##労
##勃
##勒
##勛
##勤
##勲
##匹
##升
##华
##卑
##卓
##卜
##占
##卯
##危
##即
##卵
##卽
##厄
##厳
##去
##参
##叛
##叟
##叢
##叩
##吃
##各
##吊
##吐
##吟
##否
##含
##吸
##吹
##吾
##呼
##咋
##咎
##哀
##哈
##哥
##哭
##唊
##啄
##喀
##喊
##喣
##喬
##喻
##嗣
##嘆
##噶
##园
##囲
##圍
##圳
##坤
##坦
##坪
##垂
##垢
##埈
##埴
##培
##堅
##堆
##堉
##堡
##堤
##堪
##堯
##塊
##塋
##塚
##塡
##塤
##塽
##塾
##墉
##増
##墟
##墳
##墻
##墾
##壤
##壯
##壹
##壻
##备
##复
##夕
##夭
##奄
##奈
##奏
##奕
##奢
##奥
##奮
##奴
##奵
##奸
##妄
##妒
##妓
##妖
##妣
##妻
##姪
##姫
##姿
##娘
##婚
##婢
##婿
##媛
##嫁
##嫉
##嫡
##嬖
##嬴
##孤
##宏
##宕
##宙
##宝
##実
##宴
##宸
##宿
##寂
##寇
##寒
##寛
##寡
##寮
##寵
##寸
##対
##将
##導
##尔
##尸
##屈
##屛
##屠
##屯
##岑
##岾
##峠
##峯
##峻
##崖
##崙
##嵩
##嶼
##巡
##巫
##已
##巾
##帖
##帥
##帳
##幕
##幹
##幼
##幽
##庁
##広
##床
##应
##底
##店
##庚
##庸
##庾
##廈
##廊
##廛
##廠
##弑
##弓
##弔
##弛
##弟
##张
##弥
##弦
##弱
##当
##彗
##彧
##彪
##彫
##彭
##彼
##徒
##徙
##徵
##忌
##忘
##応
##快
##忽
##怖
##怡
##怨
##怪
##恊
##恋
##恐
##恕
##恤
##息
##恵
##悅
##患
##悰
##悳
##惛
##愁
##愍
##愚
##愴
##愿
##態
##慣
##慵
##慾
##憂
##憐
##憧
##憬
##懋
##懌
##懸
##懼
##戊
##或
##战
##戚
##戱
##戲
##戸
##扈
##托
##批
##抄
##把
##折
##抱
##押
##拆
##拍
##拏
##拓
##招
##拜
##拝
##拠
##拳
##拾
##按
##挑
##挺
##挾
##挿
##捕
##掉
##掛
##掠
##接
##控
##換
##揭
##揮
##損
##撃
##撓
##撤
##撫
##撮
##撰
##撻
##擁
##擇
##擔
##據
##擲
##擾
##攝
##收
##效
##敍
##救
##敞
##敢
##敷
##斂
##斐
##斑
##斛
##斫
##斯
##於
##旌
##旣
##旧
##早
##旱
##旺
##旽
##昀
##昆
##昉
##昊
##昐
##昔
##昧
##昨
##昱
##晏
##晟
##晦
##晷
##暉
##暗
##暢
##暦
##暹
##暾
##曔
##曙
##曜
##曼
##曽
##替
##朮
##术
##杖
##束
##来
##杬
##杰
##杻
##枚
##枝
##架
##柄
##柏
##柔
##柯
##柴
##栄
##栗
##桃
##桑
##桱
##桿
##械
##棋
##棟
##棺
##検
##楔
##楡
##楫
##楯
##楽
##榘
##榛
##槃
##槿
##樊
##樑
##模
##樣
##権
##横
##樫
##橘
##檀
##欽
##款
##歎
##歴
##殊
##殘
##殼
##毀
##毁
##每
##毒
##毓
##気
##氷
##汀
##汚
##汧
##汪
##沔
##沢
##沭
##沿
##泊
##泛
##泥
##泳
##洁
##洵
##济
##浚
##浜
##浴
##涅
##消
##液
##涼
##淀
##淙
##混
##済
##渋
##渠
##渤
##渦
##温
##測
##渭
##渴
##游
##湊
##湘
##湛
##湜
##湯
##満
##溝
##溢
##溥
##溯
##溶
##滄
##滋
##滝
##滨
##滸
##漏
##漑
##漪
##漫
##潔
##潘
##潢
##潮
##潼
##澈
##澗
##澳
##澹
##濁
##濉
##濠
##濤
##濩
##濮
##濱
##瀛
##瀨
##灌
##灰
##炫
##炭
##炳
##点
##為
##烽
##焞
##焰
##焼
##煕
##煙
##照
##煬
##熟
##熹
##燁
##燒
##燦
##燭
##燮
##燿
##爀
##爆
##爚
##爛
##爭
##爵
##爺
##片
##牌
##牟
##犖
##犬
##狂
##狐
##狙
##狭
##狴
##狹
##狼
##猫
##猷
##猿
##獲
##玆
##率
##玖
##环
##珅
##珊
##珏
##珓
##珖
##班
##琅
##琉
##琪
##琬
##琮
##琰
##琵
##琶
##琿
##瑀
##瑚
##瑟
##瑪
##瑯
##瑺
##璉
##璘
##璜
##璹
##璽
##瓚
##瓣
##甄
##甕
##產
##畜
##畠
##畢
##畷
##畿
##疆
##疇
##疎
##疫
##疾
##療
##癸
##発
##皓
##皴
##盜
##盡
##真
##眠
##眾
##睦
##睿
##瞿
##矛
##矩
##短
##矯
##砂
##砣
##硬
##碁
##碧
##確
##磅
##磐
##磬
##礁
##礎
##礖
##礼
##礽
##祀
##祁
##祇
##祔
##祚
##祜
##祝
##祢
##票
##祺
##禄
##禅
##禎
##禔
##禛
##禦
##禧
##禩
##禰
##禵
##禽
##秉
##租
##秩
##稔
##稗
##稙
##稜
##稟
##稱
##稷
##稿
##穗
##穢
##穩
##穫
##穹
##穿
##突
##窒
##窮
##窯
##竜
##竝
##竟
##竺
##笙
##笛
##筋
##筑
##答
##筮
##箋
##箏
##箕
##算
##箚
##箭
##箱
##篆
##篤
##簇
##簫
##粧
##粹
##糧
##糾
##紂
##紋
##級
##索
##絃
##経
##絡
##絢
##給
##絲
##絵
##絿
##綏
##継
##続
##綠
##綬
##綰
##綸
##綺
##綽
##綾
##綿
##緋
##総
##編
##緯
##練
##緻
##縦
##縮
##績
##繁
##繕
##繡
##繪
##纲
##续
##编
##缶
##羊
##羞
##羣
##羲
##羹
##翊
##翠
##翰
##耀
##耆
##耐
##耕
##耗
##耿
##聃
##聘
##聰
##聴
##肇
##肖
##肝
##肥
##胃
##胆
##胎
##胤
##胥
##脂
##脈
##脊
##脚
##腑
##腰
##腹
##膝
##膠
##臟
##臥
##舌
##舎
##舜
##航
##艶
##艺
##艾
##芈
##芑
##苑
##苛
##茎
##茫
##荇
##荊
##荒
##莖
##莘
##莞
##莫
##莽
##菁
##菌
##菜
##萄
##萌
##萱
##葡
##葭
##葺
##蒲
##蔓
##蔚
##蔬
##蔭
##蔵
##蔽
##蔿
##蕃
##蕆
##蕩
##薈
##薔
##薪
##藍
##藪
##藻
##蘆
##虐
##虜
##虞
##虫
##蛆
##蜂
##蜜
##蝕
##蝦
##蝨
##融
##蠟
##衍
##衙
##衝
##衡
##衢
##补
##衰
##袖
##裁
##装
##裏
##裔
##襲
##覆
##観
##覽
##览
##討
##訣
##訥
##註
##証
##詔
##評
##詠
##詳
##詹
##誅
##誕
##誥
##説
##誰
##誼
##誾
##諡
##諦
##諧
##諭
##諺
##諾
##諿
##謂
##謄
##謔
##謠
##謨
##譚
##譯
##譽
##讚
##误
##谋
##谿
##豉
##豐
##豚
##豪
##豫
##豰
##貝
##負
##貢
##貫
##貯
##買
##貸
##貼
##賁
##賊
##賑
##賓
##賚
##賤
##賦
##賴
##賻
##贖
##走
##趾
##跋
##跌
##距
##跡
##跪
##踊
##蹄
##蹟
##蹶
##軟
##転
##軾
##輓
##輟
##輯
##輿
##轄
##轍
##轩
##辞
##辦
##辯
##返
##连
##迭
##述
##途
##逢
##遁
##遇
##遍
##違
##遣
##遥
##遮
##遲
##避
##還
##邵
##邸
##郊
##郵
##鄂
##鄒
##鄜
##酉
##配
##醉
##醍
##醐
##醜
##醬
##采
##鈔
##鈕
##鈞
##鉄
##鉅
##鉛
##鉴
##銓
##鋸
##鋼
##錆
##鍊
##鍮
##鍼
##鎌
##鎔
##鎖
##鎣
##鎧
##鎰
##鏜
##鏞
##鏤
##鑒
##鑛
##镌
##閑
##閡
##関
##閱
##闔
##闖
##闥
##阙
##阮
##陈
##降
##陛
##陟
##陣
##隃
##隈
##隕
##障
##隷
##隸
##雍
##雑
##雖
##雷
##需
##霖
##霜
##静
##革
##靳
##鞍
##鞠
##鞭
##韦
##韬
##韻
##響
##須
##頌
##預
##頼
##額
##顎
##顒
##顕
##願
##顚
##顛
##顧
##飜
##飮
##飯
##飽
##飾
##餐
##饌
##馮
##駆
##駕
##駿
##騒
##驍
##驗
##驤
##驥
##髙
##鬪
##鮎
##鯨
##鱗
##鲜
##鳴
##鵬
##鶯
##鷄
##鷹
##鷺
##鸞
##鹵
##麋
##麥
##麼
##麾
##黄
##默
##黜
##鼎
##鼻
##齒
##齡
##龔
##龕
##갅
##갉
##갋
##갗
##갘
##갛
##갬
##갰
##갵
##갹
##걈
##걍
##걑
##걘
##걲
##겂
##겄
##겈
##겋
##겓
##겝
##겡
##겤
##겧
##겻
##곀
##곃
##곅
##곗
##곘
##곪
##곯
##곷
##곸
##곻
##괞
##괭
##괵
##괸
##괼
##굘
##굣
##굯
##굷
##궅
##궉
##궛
##궬
##귐
##귘
##귝
##귬
##귯
##귱
##귻
##귿
##긑
##긔
##긛
##긬
##깄
##깇
##깈
##깉
##깖
##깞
##깟
##깠
##깢
##깤
##깩
##깸
##깹
##깻
##깽
##꺄
##꺅
##꺆
##꺇
##꺍
##꺙
##꺜
##꺠
##꺤
##껀
##껃
##껒
##껜
##껫
##껬
##껭
##껰
##껸
##꼅
##꼇
##꼍
##꼐
##꼮
##꼳
##꽄
##꽈
##꽥
##꽦
##꽹
##꾄
##꾱
##꾿
##꿎
##꿐
##꿑
##꿓
##꿘
##꿧
##꿬
##뀜
##뀝
##뀨
##뀩
##뀰
##뀼
##끅
##끆
##끋
##끎
##끕
##끙
##끚
##끠
##끾
##낍
##낏
##낑
##낔
##낛
##낞
##낟
##낰
##낲
##냊
##냌
##냑
##냔
##냘
##냣
##냨
##냬
##넀
##넒
##넖
##넗
##넙
##넜
##넢
##넫
##넹
##넼
##넿
##녈
##녓
##녿
##놃
##놋
##놑
##놕
##놘
##놜
##놧
##놬
##뇔
##뇬
##눊
##눙
##눼
##뉠
##뉨
##뉩
##늡
##늣
##늨
##늰
##늴
##닁
##닊
##닏
##닟
##닠
##닢
##닯
##닺
##닻
##닼
##댇
##댘
##댠
##댣
##댬
##댰
##댸
##덛
##덨
##덯
##덷
##뎃
##뎈
##뎋
##뎍
##뎐
##뎜
##뎟
##뎡
##뎨
##돜
##돝
##돟
##돠
##돤
##돱
##됀
##됄
##됌
##됏
##됫
##됬
##됭
##됴
##됻
##둣
##뒈
##뒌
##뒬
##듁
##듧
##듨
##듴
##듵
##듸
##딍
##딨
##딫
##딬
##딮
##딲
##땁
##땈
##땋
##땍
##땓
##땔
##땝
##땟
##땨
##땸
##떈
##떌
##떔
##떙
##떫
##떰
##떱
##떵
##떽
##뗏
##뗬
##뗴
##뗼
##똔
##똗
##똠
##똬
##똭
##똴
##뙀
##뙁
##뙇
##뚠
##뚬
##뚯
##뜀
##뜁
##뜌
##뜷
##뜹
##뜽
##띀
##띌
##띕
##띡
##띨
##띰
##띱
##랃
##랒
##랔
##랟
##랰
##랸
##랽
##럈
##럔
##럤
##럾
##렜
##렠
##렿
##롁
##롴
##롷
##롸
##롹
##뢀
##뢈
##뢉
##뢍
##뢔
##뢴
##뢸
##룀
##룔
##룕
##룯
##뤌
##뤠
##뤡
##뤰
##뤽
##륀
##륄
##륌
##륒
##륺
##릋
##릌
##릏
##릐
##릣
##릳
##맂
##맄
##맍
##맗
##맜
##맟
##맠
##맻
##먄
##먠
##멉
##멌
##멎
##멐
##멓
##멥
##몀
##몃
##몆
##몌
##뫁
##뫄
##뫘
##묄
##묏
##묑
##묠
##묨
##묭
##묽
##묾
##뭅
##뭍
##뭏
##뭡
##뭣
##뭥
##뭨
##뭬
##뮁
##뮨
##믄
##믐
##믓
##믕
##믜
##믺
##밎
##밐
##밓
##밗
##밣
##밨
##밪
##밫
##밬
##밷
##뱁
##뱄
##뱆
##뱍
##뱎
##뱐
##뱔
##벋
##벰
##벴
##벸
##볏
##볓
##볔
##볘
##볠
##볹
##볻
##봈
##봊
##봑
##봘
##봙
##봣
##봫
##봬
##봭
##봴
##봵
##뵀
##뵌
##뵛
##뵜
##뵤
##뵨
##뵹
##붅
##붆
##붇
##붑
##붜
##붸
##붹
##뷁
##뷃
##뷐
##뷜
##븀
##븅
##븍
##븜
##븟
##븡
##븨
##븬
##빂
##빋
##빝
##빢
##빰
##빳
##빻
##뺌
##뺍
##뺒
##뺘
##뺠
##뺴
##뺵
##뻉
##뻡
##뻬
##뻭
##뻴
##뼉
##뼜
##뽁
##뽄
##뽈
##뽜
##뽠
##뽯
##뽱
##뿅
##뿡
##뿨
##뿩
##뿰
##쀍
##쀨
##쀼
##쁩
##삑
##삔
##삘
##삤
##삥
##삳
##삵
##삻
##샊
##샙
##샜
##샠
##샡
##샣
##샥
##샾
##섕
##섥
##섫
##섲
##섳
##섴
##섷
##섻
##섿
##셐
##셑
##셕
##셤
##솀
##솁
##솅
##솓
##솝
##솢
##솤
##솧
##솨
##솬
##솰
##쇤
##숑
##숩
##숰
##숴
##숼
##쉅
##쉈
##쉔
##쉡
##쉣
##쉥
##쉩
##쉭
##쉿
##슁
##슉
##슠
##슥
##슲
##슺
##슼
##슽
##슾
##싀
##싄
##싐
##싑
##싖
##싡
##싢
##싰
##싴
##싷
##쌉
##쌔
##쌕
##쌘
##쌜
##쌰
##썅
##썌
##썜
##썡
##썪
##썻
##쎀
##쎅
##쎈
##쎌
##쎔
##쎗
##쎘
##쎠
##쎤
##쎴
##쎼
##쏔
##쏨
##쏩
##쏫
##쏱
##쐌
##쐬
##쑈
##쑝
##쑬
##쑴
##쑵
##쒀
##쒕
##쒜
##쒯
##쒰
##쒸
##쓉
##쓔
##쓕
##씐
##씝
##씪
##씯
##씰
##씸
##씼
##앀
##앋
##앍
##앎
##앖
##앚
##앜
##앟
##앸
##얉
##얐
##얔
##얙
##얜
##얺
##엊
##엏
##엓
##엨
##엪
##엾
##옂
##옄
##옇
##옘
##옙
##옜
##옭
##옯
##옰
##옶
##옼
##옿
##왃
##왅
##왐
##왑
##왘
##왝
##왤
##왱
##욀
##욈
##욌
##욥
##욧
##욬
##욯
##욷
##욹
##욺
##웄
##웟
##웤
##웩
##웻
##웽
##윀
##윖
##윘
##윰
##윱
##읃
##읅
##읎
##읏
##읔
##읖
##읗
##읜
##읭
##읮
##읹
##읺
##읿
##잌
##잏
##잗
##잛
##잫
##잴
##쟀
##쟉
##쟌
##쟎
##쟘
##쟙
##쟝
##쟞
##쟨
##쟾
##젅
##젆
##젇
##젋
##젔
##젛
##젱
##젹
##졀
##졈
##졉
##졋
##졍
##졎
##졏
##졔
##졷
##좃
##좆
##좉
##좊
##좍
##좐
##좔
##좝
##좠
##좢
##좨
##죈
##죗
##죙
##죤
##죨
##죳
##죴
##죵
##죶
##죷
##죸
##죻
##줗
##줠
##줫
##줭
##줮
##줴
##줸
##쥇
##쥑
##쥣
##쥤
##쥰
##쥴
##쥼
##즁
##즛
##즞
##즤
##짂
##짇
##짏
##짘
##짛
##짢
##짦
##짫
##짭
##짯
##짴
##짹
##짼
##쨈
##쨉
##쨋
##쨍
##쨓
##쨔
##쨩
##쨰
##쩁
##쩃
##쩄
##쩖
##쩜
##쩝
##쩧
##쩨
##쪈
##쪙
##쪠
##쪾
##쫌
##쫍
##쫏
##쫒
##쫗
##쫘
##쫙
##쫭
##쬐
##쬔
##쬘
##쬬
##쭁
##쭊
##쭌
##쭐
##쭘
##쭙
##쭝
##쭤
##쮜
##쮸
##쯗
##쯥
##쯧
##쯩
##쯪
##찎
##찝
##찟
##찧
##찯
##찱
##찿
##챃
##챡
##챤
##챦
##챨
##첬
##첮
##첵
##쳅
##쳉
##쳔
##쳣
##쳥
##쳬
##촏
##촙
##촟
##촣
##촤
##촥
##촹
##쵀
##쵁
##쵝
##쵼
##춋
##춌
##춴
##춸
##췃
##췟
##췬
##췻
##츈
##츙
##츤
##츳
##츼
##츽
##칀
##칝
##칟
##칡
##칰
##칻
##캍
##캑
##캢
##캭
##컄
##켁
##켑
##켕
##켬
##켭
##켯
##콬
##콮
##콯
##콱
##콸
##쾡
##쿳
##쿸
##퀜
##퀭
##큇
##큔
##큠
##큭
##큽
##킁
##킄
##킈
##킌
##킼
##탆
##탗
##탸
##턀
##텈
##톳
##톺
##톼
##퇄
##퇘
##툥
##툽
##툿
##퉜
##퉤
##퉷
##튄
##튭
##틉
##틍
##틐
##팼
##펏
##폇
##폽
##폿
##퐈
##퐉
##퐌
##퐛
##퐝
##퐠
##푀
##푄
##푈
##푱
##풉
##풓
##풔
##풕
##풩
##풰
##퓬
##퓸
##퓽
##픕
##핕
##핛
##핟
##핡
##핣
##핥
##핦
##핧
##핬
##핮
##핯
##핰
##핱
##핳
##핶
##핻
##햅
##햌
##햏
##햐
##햝
##햤
##헀
##헏
##헑
##헙
##헠
##헣
##헸
##헿
##혓
##혖
##홓
##홥
##홪
##홬
##홯
##홰
##홱
##횐
##횔
##횤
##횬
##횽
##훃
##훋
##훓
##훕
##훟
##훡
##훸
##휏
##휙
##휜
##휨
##휫
##휸
##흄
##흏
##흗
##흝
##흣
##흨
##흫
##흭
##흳
##힛
##힣
##／
##；
과량투여
경막외혈종
발모벽
장출혈
간대발작
분만력
긴장기흉
자연면역
신경집
부신피질자극
아세틸콜린
말총증후군
충양근
점안
항혈전
표준작업지침
원충증
빨기
지남력장애
실혈
연합반응
발열기간
들신경동공결손
직류자극
디엠
청력도
소실성
날개돌기
냉동수술
구취
부인과의사
말이집신경
맹검법
올림근널힘줄
혼합제제
핵산
흔듦
점액층
골유도
동종요법
아플라톡신
망막증
착색
두정맥
유두종
니볼루맙
시각로
의학연구
재부착
지각과민
발성불능
나선균
골종
간독성
중심오목
효소활성
영상의학
익상편
치주병
세포노화
무운동
황체형성호르몬
앞세로인대
섬유증
혈액세포
벌어짐
골원
상피
혈장교환
호흡중추
세발
대변검사
유핵적혈구
빈호흡
세팔로스포린
암죽뇨
열치료기
아세틸글루코사민
속질염
위족
뇌활동
발생장애
국소피판
림프모구
속가슴동맥
폐렴알균
색측정
부위마취
스테비오사이드
이미페넴
신경성장인자
간뇌
과산화물
산분비
기능항진
요관폐쇄
앞위엉덩뼈가시
훈증
해상력
원시난포
세로인대
교상
종자세포
혈소판활성인자
후보유전자
점돌연변이
젖산염
상사시
봉우리빗장관절
절치
기피제
저활동
올리고클론띠
피롤
빈맥
안압계
호흡지수
적자색
소지구
대동맥구멍
강장
마름모
에스터화
영양형
녹각
운동신경세포병
철결핍
가슴대동맥
경첩관절
유사분열상
독성쇼크증후군
대처기술
무증상기
안진
식품매개
근막염
식도염
점액낭종
전립샘염
종양괴사인자
정신신체
발허리
보조화학요법
나병
자궁근종절제
내림
형간염
직상
아라키돈산
저항지수
궁둥
중족골간
혈관내수술
침향
가족성
발학
소적혈구
배아형성
정신건강의학
패혈쇼크
팔받침
케토코나졸
말초혈액
포획
심초음파검사
세포유전
캡슐화
큰어금니
골극
뼈몸통
척수신경
식사요법
분할표
샘염
발보조기
어깨뼈가시
내장통증
중심널힘줄
소프트콘택트렌즈
머릿니
수근관
레보페드
두개안면
동맥내
미분화세포
정상균무리
쇄석기
무도증
피부접촉검사
성대인대
자동맥
발꿈치입방관절
성격장애
볼기
포타슘
바비탈
아세트아미노펜
위상차현미경
산혈증
비에스
근감소증
고형분
포자충
망막병증
글루코파지
언어상실증
탄력연골
경계구역
공중합
목신경고리
신경지배
지지띠
악성고혈압
멜라토닌
섬유주
라식
감초추출물
면역반응성
위팔노관절
에이즈
골연골종
횡문근육종
길항제
공황발작
대뇌와
불화수소산
안저검사
분말형
노말헥산
비뇨
머리뼈절개
색약
메타네프린
인공기도
분리주
중간엽종양
하직근
도플러초음파
감작
둔근
눈돌림신경
크론병
요도조영
잠복기
부구
아세틸갈락토사민
떨림
경사계
흡인기
비경구
혈액제제
트리스
자궁경부
늑간신경
망치뼈
발육지연
사르코이드증
자가항원
피부홍반루푸스
보조기구
장낭
소화불량
이상각화증
요로결석
공막
아령
연골막
좌회선
자연유산
기도저항
구심
가시아래근
넓은인대
신호대잡음비
항온
치은염
다공증
염산염
골세포
혈색소혈증
적외
카드헤린
샘절제
건성수포음
위팔뼈작은머리
시표
폴리에틸렌글리콜
동결견
아스파라진
오진
접형구개
목말발꿈치
사백신
혈전색전증
안동맥
상망막
호흡기관
교환체
점성도
환추후두
코입술주름
구강성교
인돌
운동섬유
근디스트로피
감쇠계수
엉치결절인대
천연두
사량체
입천장혀
자정작용
결막충혈
포경수술
골절제
내형질
당약
감속기
명목척도
위빗근
비중격만곡
질편모충
장딴지
다혈
장폐색증
항카디오리핀항체
클로라이드
인격화
소맥
상완신경총
연관통증
사이질세포
다중심
긴발가락폄근
운동유발전위
뇌하수체후엽
아티반
수막뇌염
수술마취
위관절융기
심장정맥굴
상피병
혈소판감소
속립
자궁내막종
흉골절개
기관지연축
비모
닿는곳
몸감각유발전위
고환동맥
악성중피종
언어장애
열상
연속봉합
혈관화
생약
수초화
소장대장염
지지세포
변비약
운동경
세로활
정맥주사
골증식
건삭
직하
혈소판응집
생리학자
족근동
표피탈락
심실빈맥
척골동맥
방실차단
보관기간
간바깥
보완의학
최대심박수
소엽
우세안
모세포종
중심부바늘생검
동원체
딴곳증
이상반응
약역학
죽경화증
아구창
설사병
합성착향료
넓적다리
세포바깥바탕질
플런저
세포자멸사
종양용해
정점굴절력
면역병리
인슐린의존
종속영양생물
활성제
신경안정제
통증조절
피톤치드
쇠퇴
흉곽출구
형간염백신
코티손
고실끈신경
유선염
흡충증
산소공급
염류
프로토닉스
이뇨작용
얼굴뼈
용종증
월경과다
시신경유두
수질암
부착물
추출액
사이관
항갑상샘제
근육세포질그물
머리속
폐유순도
동맥파열
안식향
파속
이질균
영상소견
점액다당
릴렉스
안마기
침분비
외이도염
조혈
동맥혈압
마이크론
안쪽반달
여로
발생연령
사회의학
영양관
상소뇌동맥
오금동맥
골감소증
관상동맥우회술
앞창자
누움
베타글루칸
방광압
펩타이드결합
내폐쇄근
힘판
턱밑샘
변형적혈구
고립로
미량원소
회전축
카로틴
면역조직화학
향제
덩이효과
가로막신경
대뇌동맥
눈확
소뇌핵
판토텐산
이황화탄소
펩신
샤인
앞코가시점
유두모양암
블롯
지지물
혈종
집락형성단위
골간신경
활성화부분트롬보플라스틴시간
황산나트륨
근원섬유
절제생검
기관협착
소뇌피질
두판상근
호지킨림프종
만성폐쇄성폐질환
방광결석
신생물
수직판
포함기준
최저치
표적세포
후골수구
.데포
적정량
심정지
쌍태아
병기분류
노동맥
요도구
각결막염
장용성
설염
후굴
중간볼기근
큰모음근
오목면
스핑고신
연골절제
반사항진
현삼
올림근
족인
감각기
미상엽
폐쇄세기관지염
섞임증
당뇨병약
덮개앞
만곡
기관지주위
예방치료
임상징후
망막색소
리진
두정엽
인히빈
칼라민
전종인대
위골반문
금속단백질
상완골두
악성세포
온도안진
처녀성
디시스
압력수용
보육기
족근중족관절
눈돌림신경핵
조홍
광안정
회외근
속엉덩동맥
흉곽출구증후군
중간물
수평주시
세포주기
촉진확산
유비퀴논
칼슘통로차단제
뱀독
집모기
표피세포
간문맥
탄력붕대
관절연골
영아연축
재건수술
뇌전증
윤상갑상근
전두측두
천골
옥시콘틴
점출혈
아래창자간막동맥
상승작용
히스타민수용체
혈류
노인의학
리슈만편모충증
싸개
후경골근
귤껍질
작업치료사
간굴곡
주머니배
골판
골낭
호모시스틴
감돈
면화반
운동요법
근긴장이상증
세균학
끝뇌
바탕질
접합성
네오디뮴
데시벨
자동굴절검사기
단핵
척추결핵
종괴
항염증제
식도이완불능증
삼첨판
적임
조울
발바닥근막
페닐알라닌
세포융합
정상색소
프로프라놀롤
혈액희석
선량
허용오차
포식작용
에스테라제
꼭지근
미용수술
요양소
항문암
누관
적정용량
원형질
무긴장발작
산란선
시각중추
꽈리
경피
사구체옆
평형기
국소발작
탄력조직
과오종
박멸
전정질
관절유합술
할돌
디에틸
전정안구반사
활석
인산나트륨
신생아기
굴곡구축
응집소
증식형
피리미딘
면역블롯
일사병
섬유육종
안압
인산염
샘분비
균사체
억제물질
둔함
월경기
미숙
종뇌
성병림프육아종
경첩
교질
이소니아지드
소결절
후하소뇌동맥
무혈성
적혈모구증
메틸
성염색체
동맥고리
단순확산
엄지발가락
방실
상공막
흉골
대사장애
수산화효소
감염후
세척용
쌍극자
연합섬유
개자
아황산가스
심방세동
손목폄
사이뇌
카르디젬
고유판
아랫배신경
열응고
티오
혈전증
용원
비동기화
낭성섬유증
디딤기
뱃멀미
갈비가로막각
무지외반
요근
뎅기
강직성
공혈자
환약
클로스트리디움
근점
사구체기저막
가인산분해
병인학
귀구슬
평균혈소판용적
철결합능
점막밑
이중초점
심율동전환
편충
환원효소
경혈점
손목뼈
면역요법
무월경
근상피
결정학
입천장구멍
인터루킨
탈수소
복재신경
목덜미선
채식주의자
등가선량
토리쪽곱슬세관
목뿔뼈
속면
리신
바이코딘
연부조직
치과검진
멜라닌세포
늑연골
이성질화
옵소닌화
검사기
반회후두신경
침골
회복제
테트라하이드로퓨란
사립체질환
끝분절
화학유인물질
디옵터
응급의료전화상담원
담관
동종면역
동상
자기한정
중비도
연골내골
저온살균
발한
경화제
혼합종양
버팀질
음치
폐경후
거담
호르몬요법
굴절교정수술
항독
항생제내성
개방골절
접합부리듬
간통증
눈근육마비
장간막동맥
천장인대
실행증
눈물샘
중성지방
종창
주혈흡충
비호지킨림프종
전음
기관식도
골지복합체
신경분포
면역학적
상악동맥
하이트린
메틸기
사골동맥
위샘
근육다발막
텔미사르탄
소중합체
신생아집중치료실
척추분리증
소수관절염
췌장소도
인도메타신
척수
부골
폐결핵
유침
골편
날개인대
극점
이성질
후근신경절
관상봉합
거근
귓속
크레아틴
사정관
혈관작용
대망
건초
대뇌피질
장내세균총
상처압박
골모세포종
진저
종숙주
필라멘트
자낙스
항당뇨병제
종면
다형성
그람양성균
황산화
걷기어려움
흑질
크릴산
광장공포증
완전효소
프로락틴
광각
그라프트
림프부종
염색질
층상
보철물
피부감작
곱슬
큰바위신경
혈관재개통
근이완제
결정인자
백내장
면역세포화학
융모생식샘자극호르몬
항독소
오른다발갈래
자궁태반
재이식
피부밑조직
되먹임
방형회내근
인트론
바닥층
교모세포
방추
의학물리학
이상근증후군
적혈모세포
혈액응고검사
분자유전검사
두형태
눈확꼭지
상측
팔꿈치관절
감염단핵구증
대동맥동
진피내모반
위오목
상완삼두근
대장내시경
단초점
지짐
안와지방
이행세포
병약
혈철소증
미성숙중성구증가
극세포증
접안렌즈
신경바깥막
탈회
세갈래
태변
하이드
주름성형
글루코오스
더부신경
판막성형
톱니샘종
리파아제
신경원섬유
산화효소
역학조사
장결핵
혈청반응
메틸화
조품
내장근
투시
뒤정강근
소뇌증
보행주기
유두골
프로베네시드
교근
집게손발톱
난청
특이체질
심장성
운동부하심전도
굴림
추출기
흑암시
난포세포
히포크라테스
거상
약물성
정상위치
섬유판
출혈쇼크
신생항원
장세포
시상영상
노르에피네프린
선염
하행
번데기
부교감신경절
구역질
비뇨생식계
수도관주위회색질
항균작용
일본뇌염
입술염
고칼륨혈증
신경학
횡문
행동요법
화학발광
점착성
창포
견갑골통증
후관절증후군
수막류
앞뿌리
담관암종
서골
정신분열병
결절사이고랑
흑색종
엽상종양
확산텐서영상
관상동맥조영
섬모운동
색맹
실로스타졸
생물공학
뒤대뇌동맥
갈비밑
새가슴
타성
눈물주머니
흉선종
관찰연구
갈이증
신경화학
근육계
안드로젠
소엽간중격
같은쪽
근신경
폐동맥쐐기압
황체호르몬
이소성
용혈빈혈
낭절제
망막동맥
백혈구감소증
심잡음
땀관
비오틴
최종당화산물
복장뼈각
형질세포
렙토스피라
혼합신경
이질
재순환
치밀
구강궤양
류코보린
전이암
인플루엔자
미세바늘
아만타딘
중족
무과립세포질그물
질화
투과도
기형유발성
들신경섬유
벽혈전
상염색체
과다형성
아미
궤양형성
뼈사이근
구개궁
외이도
표피박리
프로바이러스
낭창
힘줄활
담낭관
바베스열원충증
장내세균
항온기
복막내
이성질체
액와신경
과체
린단
낭류
환경위생
옻나무
피라진아미드
리피토
폐기종
안쪽곁인대
호흡기질환
둔위
외독소
점착
영양불균형
들임
융모막
전정신경
외형질
과산화효소
갈륨
활차
비병원성
뇌진탕
특이도
털곰팡이
캡시드
항섬유소용해제
박명시
항불안제
완화치료
물설사
갈고리돌기
전암유전자
살모넬라증
다발성골수종
외경동맥
홍채와
인공물
난포막
유잉육종
용혈수혈반응
부딪힘증후군
피리딘
마이코박테리아
어지럼
폐고혈압
유두진피
의식상실
날개어깨뼈
이음뼈
양성증상
전십자인대
시스플라틴
근육원섬유마디
가로돌기
배변장애
융기피부섬유육종
아킬레스힘줄
건조로
글리코사미노글리칸
약리학
혈관구조
하이드록실
남성생식기
치석
전두골
방광요도조영
척수증
고환
과다분비
포라딜
점막층
거대증
재형성
문맥주위
중격만곡
브이펜드
속씨
중심이탈
용질
아세틸시스테인
맥락막동맥
분포용적
혈액담즙
치석제거
양친
마름근
착란
전문응급구조사
부처손
기저층
저색소증
산화혈색소
니코틴산
가동관절
능동운동
경쟁억제
편평상피화생
산화마그네슘
큰포식세포
요관류
후상장골극
강박행동
포만
염증장질환
골성형
오스몰
바나듐
다이네인
폐포관
앞뿔
관자부위
포르피린증
신경병성관절병증
필라그린
타래
정보체계
분열소체
락토오스
조산아
콜린제
골반저
뼈미로
위관절융기염
안검거근
미세사상충
직접작용
아염소산나트륨
저체중출생아
바위정맥굴
사이신경세포
초오
대동맥판협착증
신장단위
피질척수
회전피판
궁둥뼈가시
염기서열분석
하복신경
혈구형성
박힘
대사산증
생바이러스
제1심음
신근
면역모세포
비강진
칼시토닌
치인대
증상군
각운동
평균적혈구혈색소농도
뇌하수체
재채기
질경
석신산
동치
항고혈압제
골수증식
임플란트
거대적혈모구빈혈
집담회
청소율
오즈비
절개배농
세포병리
자가분비
두절
유지장치
괴사
천식지속상태
혈소판감소증
절박유산
인간공학
성형수술
클로로폼
장액
비정형관상피증식증
칼모듈린
고무종
지연반응
뇌들보
제대혈
다낭
백출
공명주파수
공포형성
엄지맞섬근
국소피부경화증
표준주
염증반응
좌심실부전
침착물
심장성색전증
안쪽곧은근
온도감각
인플루엔자바이러스
대사경로
견봉쇄골관절
아세토아세트산
쿠퍼세포
알도스테론증
응고반응
통증학
반사율
혈관형성
목갈비근
출혈병
간학
코막힘
욕창
추간판조영
병독
교정치과
칼시뉴린
위십이지장
프로폴리스
상극
절대안정
자궁절제
일치율
산화철
신경펩타이드
교통동맥
신경고랑
난백
상호억제
횡골절
악액질
억제검사
향산
변형적혈구증가증
광도계
사액
뼈끝
여성생식기
이미퀴모드
다리통증
척주
심내막
상청액
작은세포
백혈병세포
목말발배
콜레라균
방광내압
정맥류궤양
정신지체
심혈관조영
의료보조
두개강
볼점막
공판막
위식도
모세혈관고리
가시돌기
긴얼굴
난치뇌전증
평활근
치수염
혈액투석기
기저막
결합체
내림프수종
분광기
부착부염
폐렴구균백신
산소투여
갑상설관
뢴트겐
지방간
독력
망막대응
열공경색
거대핵세포
연골모양
페녹시
물치료학
재관류
혈우병
헌터증후군
동맥압
비장동맥
응급의료서비스
관절통
후각신경
연골육종
중환자의학
안감
빗장뼈
암시야현미경
바베시아
운동치료
눕기
고리육아종
자세잡기
승모판역류
누액
척수공동증
잔뿌리
정신발달
두정골
강직
만곡증
눈금
무혈성괴사
척추사이구멍
추적검사
동종항원
심내막염
루프
손발톱주름
위안쪽
다운증후군
두갈래근고랑
광천수
암포테리신
코자
안뜰기관
면역용혈빈혈
심근경색증
솔기핵
산소요구량
성징
복강신경총
해열작용
짧은종아리근
혈관외유출
외반슬
협착
혈청학
금식
유전자요법
신경모세포
점막염
주름제거
무릎반사
보조개
갑상샘절제
체위배액
내측측부인대
중족골간각
무증상
적혈구응집
결막
일괄절제
인두뒤
애씨드
목뿔아래근육
클립
출구폐쇄
사골봉소
노화과정
무용공간
비감수성
기준전극
핵발생
팍실
췌장절제
신경척수염
심실중격결손
나비뼈
열공탈장
되새김
메토트렉세이트
맨손
혈관부종
옥살로아세트산
대퇴삼각
출생코호트
자동분석기
악성흑색점
림프육아종
국소통증
브로모
시상면
부틸
상악동
조류인플루엔자
질산
월경통
뇌병증
음경동맥
가시세포증
혈액관류
혀인두
인공장기
골수증식질환
고마그네슘혈증
쇄골하정맥
광보호
전두동
적응기
장치선
간염
산염
미세환경
폐확산능
에틸아세테이트
연관분석
일차감각
흘림
황산칼슘
얼굴성형
뼈돌출
기초대사
동형이
시클로스포린
압박골절
정상적혈구
전부하
메로페넴
기관지내시경
탈분화
배란통
골소주
파브리병
수상돌기
우무배지
울체
경계막
스티렌
저감마글로불린혈증
균무리
자연건조갑상선추출물
흡인세포검사
좀약
안쪽섬유띠
시타글립틴
혈액공급
편두통
항구토
젖분비
협심증
뇌내출혈
종속영양
케톤증
큰창자
스피츠모반
전두근
머리뼈바닥
조제분유
글리코실
반관
화상
인슐린요법
무작위대조시험
주의력결핍
이식편대숙주병
작은원근
형광물질
세로토닌성
알츠하이머치매
유기화학
남성호르몬
맥각
탐색자
형광측정
비정형성
중피
자기공명분광
관절순
인구밀도
두덩뼈
파열골절
작용시간
날세동맥
화학수용체
구강건조증
이상지질혈증
연축
고등급
요관
가로무늬근육
청반
전립선증
중뇌
음전하
새살
초경
장통과시간
양막파열
반혼수
킬레이트
요추
침윤성
무색소
생체분자
빗장밑근
에리트로마이신
등자뼈
토프롤XR
후천면역결핍증후군
척수염
계통오차
슬개골
가장자리구역
대롱샘
돌림근띠
혈관종
질원개
배고픔
가슴샘
간정맥
류마티스병
콩팥잔
종관
미세순환
근긴장저하
회전근
위생기사
국소해부
이물
현탁액
맥관류
가정의학
실명
면역글로불린
약물내성
뒤당김
호환
설프하이드릴기
이산화황
윤상
원자핵
말더듬
칭함
대동맥협착
사골
부리빗장인대
고혈당증
신경피부
신경절종
항종양
관류스캔
턱밑
선별검사
중쇠
강심
조산
지모
열충격단백질
청피
반회
안면마비
혈당검사
교감신경섬유
폐소세포암
난할
좀진드기
부스러기
부정맥약
골층
원형질막
사세
아래둔덕
난소와
전신감염
고압산소요법
갈화
코안
시토신
유리질막
머리얼굴
장독소
상자성
아교질
오메프라졸
자궁경부절제
집게손가락
앞대뇌동맥
억제세포
능동
위통증
부착소
임계점
근접반사
피판
완충액
절골
엎드린자세
포식
강직간대발작
외측면
세포영양막
외투세포림프종
어루러기
혈관성형
설페이트
전뇌
표준임상경로
아과
콜레스테롤증
비복근
요족
내림프낭
혈변
항인지질항체증후군
다형핵백혈구
소엽내
뒤뿌리신경절
거짓종양
희석제
자가면역성간염
검사대
남성과학
중심체
삼차신경
스코폴라민
식중독
뎅기바이러스
중피세포
췌십이지장
흡수선량
신선동결혈장
폴산
미소프로스톨
색정
압박증후군
관제거
클린다마이신
분해산물
신경종말
평면관절
트립토판
침전제
바름
굶주림
세동
유사분열
변비
조비락스
이첨판
말라세지아
가시근
사경
평활근육종
평활
용해액
요분
집속
노쪽
단백질결합
슬와정맥
저린감
자세불안정
감각신경
국소분절사구체경화증
일반진료
재생력
혈액응고
프로테오글리칸
면역약화
골수형성
자궁각
젖샘
불쾌지수
항이뇨
신증
두겹
척추고리
바렛식도
흑색변
심근수축력
눈둘레근
테아닌
손발톱밑
괴사용해
하이브리도마
방향제
소청룡탕
선천매독
세폭시틴
반창고
면섬유
전신요법
글루타민
지방위축
과립막
인공수정체
과포화
견봉
날문
흡입산소분율
뒤굽이
홍채염
신경안과
강제입원
편도염
넓적다리뼈
백혈증
가스트린종
레보도파
복부외
혈액농축
카테터
굴절력
알칼리혈증
조화운동불능
연골종
신세관
용해제
설사제
흑색점
중심세포
거짓막
전정기능검사
자실체
재발암
다형핵
무과립구증
산내
디클로로
엽간중격
조동
적혈구지수
엉치가시인대
속심
우심실비대
햇빛노출
신우
중격연
절흔
우선성
이산화티탄
세포체
마디뼈
혈관계통
운동감각
천식
에센셜
정신운동
숙주방어
육아종증
데옥시콜산
죽종
가쪽면
외투층
체판
노출시간
자궁내막모양
네오마이신
전문심장소생술
손가락끝
수초형성
종기
세포침윤
공기누출
곡선하면적
간찰
발돌기
석면증
수술현미경
탄산수소나트륨
면역기억
림프관염
복합모반
발기부전
세포파괴
성활동
치과위생
검사실검사
정신병약
탈리도마이드
흡충류
바른표본
뼈끝판
프리마틴
적혈구무형성
낫적혈구화
심장근육병
호흡세기관지
피로골절
마약중독
조화운동
양성상
정강종아리관절
순환혈액량
뇌척수액
섬유모세포종
트롬빈시간
신경병리
조루술
혈관신생
자궁넓은인대
중증열성혈소판감소증후군
물리요법
내분비병증
등통증
연골모세포
간비장비대
폐음영
피질
감염심내막염
간내결석
트리메틸
설골상근
요골동맥
방광질
분만과정
에스트라디올
부갑상샘항진증
고본
통풍결절
꺼짐
튜불린
염화비닐
단비골근
저환기
각막반사
흡입마취제
전문의사
유방재건
뼈흡수
과량
열원충
졸음
종형성
작용기
갈락토사민
얕은종아리신경
두엽
절박뇨
영아돌연사증후군
자근
횡돌기
추정량
풋뼈
눈주위
하악신경
아말감
간헐성경련
위식도역류
과립
유탁액
신경원
박하
희석액
총담관결석
졸로푸트
비동시성
영아사망률
총담관
단핵모세포
세포분화
무미
흡수장애
회내
산소마스크
이노시톨
소교세포
얼굴동맥
복와위
중재술
기관염
축삭절단
충혈제거제
당귀수산
손배뼈
질외
광배근
극서파복합체
구개편도
나트륨염
회장염
축농
변상
관상정맥
수축력
하시모토병
전기경련
에크린땀샘
동종항체
외인사
손목뼈사이관절
사슬알균
배뇨장애
부검
월상골
사슬알균감염
열린타원구멍
콕사키바이러스
압통
활력징후
무뇌아
각막반
니코틴아미드
장애율
자낭
안쪽넓은근
짧은발가락폄근
생물군
효소유도제
앉은자세
가지돌기세포
장통증
항산화제
기침반사
망울
의족
가슴통증
자기공명혈관조영
예후인자
혈족
요역동학검사
미오글로빈
폐쇄수면무호흡
엉덩뼈
골간근
식염수
면역형광
실론
전기안진
주혈흡충증
선구조
장액성
부고환관
흑색증
침전기
타원적혈구
전신뇌전증
면역감시
신경호르몬
삼출물
과다팽창
음양곽
쇄골하동맥
침착
반구진발진
생체역학
분배계수
티미딘
패모
지속발기증
관영양
운반단백질
여성유방
투명세포암종
정도관리
아데닌
뼈파괴세포
코근
소판막
함입
항콜린
분열적혈구
조프란
지지요법
방실다발
사용제
자화
안면골
장샘
모낭염
앞정강근
색소침착
올리고뉴클레오타이드
감마나이프
갈비사이공간
파르보바이러스
척수근위축증
치은
예비력
발로
잇몸출혈
유리질
풍선펌프
신합성
유발점주사
극체
이핵
사지통
중배엽
질산나트륨
응괴
창백
스포츠의학
과분극
탈색소
신생검
만성신부전
작업부하
늑간근
반추동물
바닥세포
산성인산분해효소
신경교세포
포름산
다낭난소
보건의료자원
면역결핍
림프성
글루큐론산
공복혈당
골관절염
피지낭
중족지관절
지방색전증
빠른말증
독소루비신
양전자
양가감정
공기음영
세파졸린
전령
족근
볼기신경
영양막세포
심축
광대뼈축소
중조
밴딩
노쪽피부정맥
쥐젖
산류
두개와
젖산혈증
두층
홑배수체
생물학적동등성시험
자궁난관
뼈이식
낫적혈구병
짝지음
점액증
아강
모세포
응고기
행위별수가제
원엎침근
고이산화탄소혈증
백선종창
디펜히드라민
벌꿀
박트로반
파파인
자세반사
각막병증
델타파
형질세포질환
맥박산소측정
위약
장출혈성대장균
암종증
라이코펜
특이항원
항정신병제
건열
차전자피
활차신경
과다증식
직장류
혈색소병증
닫힘
방흡수
신혈관
관절주위
신염증후군
안위
스프루
가장긴근
체열
포도당신생성
와이
옥시토신
부비동염
혈액학
중환자
병원감염
비만
눈물막
인모
확장기압
반합성
케토산증
매독진
입체이성질체
반사회
골육종
알머리뼈
수신증
포착증후군
사시안
요수근
동결침전제제
한련초
기도관리
젖산
멀티비타
상행대동맥
부착반점
풍토병
척수시상로
신경병성관절
해면체
기능변화
인체모형
맞섬
휘발
노카르디아증
골반경사
식물상태
글루콘산
측두부
울혈심부전
단일수축
간성혼수
뉴클레오사이드
착상
불유합
동맥혈
야뇨증
족저근막
그랜자임
림프모구림프종
조직파편
염소이온
안뜰핵
원형결찰
섬유띠
하비갑개
견딤
고배율시야
망막중심오목
눈성형
외용제
아침경직
집도의
백반증
용종
마취과의사
냉감
조기분만
혈관병증
렘데시비르
액체질소
염색체이상
순환정지
상완정맥
뇌파검사
표준용액
결절성
화학색전술
엉치엉덩
편위
경련
고관절염
흥분성
간기능장애
멜라닌색소
대퇴신경
세침흡인생검
심근염
배아이식
손허리손가락관절
배농
지사제
산뇨
다모증
칼돌기
비율척도
족저근막염
사지절단
국소도포
분자생물학
산업위생
응고시간
장흉신경
병원관리
부형제
심실비대
심실확장
대퇴피부신경
전사인자
성장통
관삽입
증식기
예방용
항우울제
반응단백질
미포
아핵
호지킨병
작동세포
초유
중간잔섬유
갈색지방
부전
베타차단제
작약
비골
등록체계
에스티
솔방울샘
반맹
시각통증등급
체중증가
방사선노출
치료공동체
태지
고정약진
불화나트륨
콜레스티라민
피부보존
당질층
과다수면
외복사근
억제인자
항산
프레드니손
세포외
멘델유전질환
진동감
스트론튬
트롬빈
저림
까짐
후전
전구단백질
심부뇌자극
항뇌전증
보인자
발생기
중간엽줄기세포
아래빗근
중심소체
검상돌기
진단학
직장자궁
적혈구침강속도
민무늬근육
가소제
복장목뿔근
후두융기
해리상수
케타민
설파제
미세골절
눈가림
정복술
공막콘택트렌즈
심실사이
탐폰
글루코스
잠복매독
이형접합
알벤다졸
랑게르한스세포조직구증
종자유
담갈색
약물유해반응
비뇨생식기
거미막밑출혈
분획배설
좌각차단
홑배수
끝점
적혈구형성
염색체성
쌍알균
배세포
만곡족
저긴장
목근막
헤모글로빈
성문위
횡단척수염
정강종아리
허혈심장병
분자층
꽈리샘
카텝신
반점구진
물렁조직
맥락망막염
영양부족
리노바이러스
근형질
감각계
눈물흘림증
백색증
관절학
가시적혈구
총간동맥
황색변색
내피종
성장지연
갑상샘종
상피내암종
고산소증
농도측정
흡입손상
요저류
유인물질
관류
섬유막
전중기
비탈분극성
진정염색질
적색속질
소포림프종
전환성장인자
침윤암
카테콜아민
척추관절병증
케톤
집단감염
호흡률
근피판
샤가스병
현미경검사
사마귀
이소트레티노인
승모판탈출
프로판
상시상정맥동
등적
전정유발근전위
아픈
측두와
오가피
중심관
연골절개
재가복지
신속보기
좁쌀결핵
점막관련림프조직
관절주머니
각막절개
난포자극호르몬
비결합빌리루빈
광축
유루증
기본수
자색의
근종
태위
태아심박수
머리인두
스폰지
콘딜로마
분아균증
대뇌섬
불안증후군
알도스테론
목빗근
근육주사
눈물분비
억제작용
함몰골절
삼염색체
안쪽복사
산염기평형
전환효소억제제
아드레날린
독혈
무형질
비성
신경섬유종증
장균군
독시사이클린
관석
세틸
단층촬영
바닥세포암종
혈색소뇨
기전위
티로신
수포음
외회전
국립보건원
거인증
위생사
전두면
다세포군
위턱동맥
카민
삼분
평발
사망진단서
긴뼈
기관주위
척추갈림증
청력저하
외측광근
자궁출혈
후성유전학
삽입관
대음순
척수신경절
배쪽
족병
내치핵
혈압상승
면역화학
촉사
생물정보학
클로르프로마진
노랑색
말론산
십이지장절제
유도체
갈비연골
바리움
낙담
외측상과염
탈진
합토글로빈
혈관내용혈
분리증
가스트린
압궤
털진드기
청신경종
귀두염
생활주기
변형시
다뇨
무선주파수
폐쇄신경
오각형
지질증
작동유전자
체강
위턱뼈
무릎뼈
깨물근
유도제
퓨린
비스테로이드소염제
심낭
흡입항원
점액낭
속질모세포종
지스로맥스
반사체
털세움
발색단
간문
비익
배가로근
설인신경
건염
얼음찜질
류마티스관절염
난소부전
경골조면
골모세포
찡그림
봉입
플루마제닐
신경뿌리병증
혈관육종
표피지향
운동과다
대립근
종말판
무균수막염
위창자간막동맥
영양요법
복장뼈
유산염
안쪽돌림
류마티스인자
체세포돌연변이
선진부
면역장애
알부민
정중절개
수의학
면역분석
막모양
두측
척추유합술
정맥얼기
굴절이상
분문
눈병증
세포속
대동맥류
완화의학
리팜피신
권장량
이마축소
현성굴절검사
이식면역
당산
비만세포종
만니톨
결막염
사강
호르몬대체요법
레날리도마이드
척추관절염
후내측
세포용해
리툭시맙
인동
저단백혈증
리놀렌산
반투과
순환성
막사이
음식덩이
베타메타손
부목고정
다리이음뼈
교감신경자극
부착분자
황정
요검사
아스코르브산
예방책
겨냥이상
미삼
증상치료
아메바증
집진드기
두덩뼈가지
보존치료
방광경부
날개근
전정안구
체외막산소공급
인공심폐기
톡소이드
마이봄샘
옥살산
장중첩증
얼굴비대칭
음핵
비문증
뇌실막
육두구
세포내섭취
카르니틴
인슐린유사성장인자
탄산
띠근육
골반신경
작은마름뼈
신경축
한선종
분비저하
일과성허혈발작
엉덩관절
항원특이성
투베르쿨린
출혈점
신염
저신호
손허리손가락
구성단위
수포진
버팀질종양
절단기
무극
임계
렉틴
털곰팡이증
뇌전증모양
중격결손
조직화학염색
무척추
내장통
클램프
합지증
유장
분홍색의
적혈구형성이상
농루
명료
평형장애
정맥주입
정조세포
피내주사
척측
요도해면체
소뇌다리
섬유소원혈증
완전방실차단
자발전위
중심시
삼합체
피나스테리드
유전자발현
전자기장
갑상샘항진
협력수축
사이질섬유증
엽절제
소세포암종
후성
밀도측정
변연
육종
대발작
삽입기
최저농도
요관방광
피막형성
진통
화학약품
임신력
연골형성
발병기전
가족계획
전기침
약물과민반응
에탄올
비틀거림
추간공
액취증
키닌
심부정맥
콩팥세관고리
간세포암종
신경증
집락
고체온
이약
기질화
총간관
큰마름뼈
신경독
보조약
미세변화신증후군
펜탄
각성제
아타칸
표적적혈구
헤르츠
타다라필
닫힌사슬
남성형
비만세포증
회전이상
기관지폐형성이상
기관지조영
주시안진
내판
데노수맙
결합수
장폐색
침샘
영상증폭
틈새이음
홍조
첩포
비행기멀미
척주옆굽음증
폐흡충증
재활성
겉질뼈
측두골
폐결절
신경전도속도
대사증후군
지루피부염
덧붙이
손발바닥
수중운동치료
지염
테오브로민
중간대
모루
등전
정골의학
피부위축
화학방사선요법
디스트로핀
거부반응
원핵생물
에타너셉트
염색체검사
흉관
히스톤
나프록센
개회충증
담관염
원인불명
골다공증
테트라
세포매개면역
목뼈
비타민결핍증
드루젠
고압증
전기응고
특발
중층편평상피
세포소기관
유예기간
조직학
살해세포
고정액
판사이
잘록창자
혈구감소
심방조동
굴절률
무음
아래눈꺼풀
안대
위몸통
감각세포
체외순환
온엉덩동맥
결절종
갈색소
전신순환
점막주름
HMGCoA환원효소억제제
빙초산
왼다발갈래
비과
디클로페낙
중탄산나트륨
포매
위세척
골전도
유비퀴틴
들것
척주뒤굽음증
갈비오목
골통증
신경운동
합체
심장병
골형성
장병증
장요근
중합
연유
스타치
큰가슴근
영점
괴사딱지
절연체
신경정신의학
침윤마취
음전위
혈청형
눈깜박
각막미란
과오돌연변이
면역고정
중심암점
시계추
신장이식
캡슐제
유발인자
항아드레날린
생존곡선
연결효소
비부비동염
약시
지간
압박붕대
혈청전환
종명
장지신근
외측인대
무작위오차
이중맹검법
멜라닌세포모반
좌위호흡
설맹
전염력
실조
복강경수술
프리베나
리프
세균관절염
구역절제
신경절세포
혀신경
방향족탄화수소
누적용량
방사선수술
메틸렌블루
가로무늬
두피
세포화학
신경돌기
환각
케토스
췌장
조직구증
피부근염
신경행동
도찰
회복기
자동능
배아덩이
이완운동
트라마돌
가락뼈사이관절
정중면
복대
단세포군
편평상피
생체외
대립유전자
오트밀
팽창성
대전자
설사약
앞전위
살균력
항바이러스제
흉터조직
척골
질성형
신경변성
탄저
포르피린
분만부
단일체
부갑상샘호르몬
수술전
구토
지방증
통증유발
고인슐린혈증
고요산혈증
대퇴이두근
엉치엉덩관절
골반장기탈출
고혈압환자
가시세포종
후천
짧은발가락굽힘근
포도상
엔케팔린
추간판
콜린수용
해면혈관종
해리증상
전파속도
뇌류
활성도
간기
굴심방결절
기관기관지
교감신경차단제
기관윤리심의위원회
조절세포
입천장갈림
유지용량
프레가발린
라벤더
무반응
소장조영술
흡인물
뇌실막세포
삼출
글리세르알데하이드
심장재활
온힘줄
클로로퀸
퇴치제
턱관절오목
양측검정
실리마린
랑게르한스세포
감마글로불린
기지개
장생검
그리풀빈
맛봉오리
경동맥동
관절안
우드등
후구
원형탈모
눈꺼풀처짐
직장동
사랑니
조절환기
상완동맥
척수소뇌
심실중격
폐부종
근위
치료약물농도감시
항우울
막미로
환원전위
다량영양소
감염관절염
리병
유구골
평활근종증
무극성
열손상
담췌관조영
생식관
혼합감염
코엔자임
허리동맥
지주막하출혈
천장관절염
화상치료
도타
비대
냉한
톡소포자충증
합성대사
정중시상면
항생
감각마비
안지오텐신
당단백질
역류
정맥투여
전이종양
스틸렌
눈꺼풀뒤당김
물주머니
이중가닥
불임
알파세포
근전도
베게너육아종증
머리쪽
경련발작
체온조절
레티놀
표면항원
보조기
위치잡이
렌즈핵
그람음성균
오른손잡이
2수용체
회선안진
아세트
벽내
코피
설골
고페닐알라닌혈증
탈민감
플라보노이드
청색반점
발견자
광수용기
자리바꿈
위쪽돌림
체위
인상재
소파술
균질
강심제
콩팥소체
최소침습수술
작은마름근
다음다갈증
혈전성향
병용요법
샘세포
항부정맥제
폐포
맥압
침사
중족골
다초점렌즈
뼈나이
뒤방
에스트로젠
아교질종
척추체
유미
이상감각
요추천자
편평족
반사기능
으깸
간담도
입사선량
헤파린
조직확장
심장차단
유전체학
경색증
동서맥
용규
황백
가락뼈
안내렌즈삽입
파킨슨병
포사맥스
근긴장도
소낭
표준인구
딴곳
자궁관염
축동
항핵항체
자정맥
이분자
연접후
혈관각화종
트리클로산
메틸프레드니솔론
신우신염
원기회복
부신피질
도르래신경
첩포검사
다발성관절염
박근
피하조직
지방층
제거기
과분비
핵황달
목굴
기형발생
비투과
이식거부반응
수소이온농도
부기
혈색소
정밀의학
안면신경
분화세포
우발
가슴앓이
진자
사망비
면역표현형
카르복실산
눈둘레
중피종
수신기
참고구간
보행분석
색수차
가쪽인대
복강동맥
확장술
하악골
발생장치
장염전
체액면역
식물유
탈분극
코티코스테로이드
자궁경부암
소포세포
부직
힘줄윤활막염
종아리뼈
카바트롤
간암
스테로이드
류마티즘
종인대
혈관주위세포
락탐
다당류와
도관삽입
척추궁
애도반응
유전부호
동반이환
엉덩갈비근
근본치료
소리굽쇠
비브리오
관상동맥류
소화액
상완요골근
분해능
변이계수
소뇌와
보조기학
살색
근무력증
주시시차
조기양막파열
피부병리
뇌경색증
일반식
라미닌
이완상
근긴장디스트로피
자가이식
경파
세포계
중간엽세포
유도자
보정기
사이클로스포린
근치
선모충
신경능선세포
무지외반각
침샘염
불완전마비
약전
염색제
마그네슘혈증
암페타민
내분비요법
귀둘레
골간단
비타민K
상인두
해면골
출생후
목통증
식포
쓸개즙
음압
소침
재주입
항균범위
기생충감염
양성되먹임
폴립
피셔증후군
방향화
습진
당화알부민
다호흡
클라미디아
매독
현증
학교보건
주사기
메싸이오닌
이륜
망막전위도
심음
하악각
경구투여
굴모세혈관
상아질
투시기
새끼두덩
천자침
크레졸
치명
두배수체
투명층
히알루론산
담낭용종
결핵균
염색체수
갈림증
골수모세포
몰약
교환수혈
신경관
엔도
남성형탈모
흉부외과
백혈구제거
정성분석
고신호
시트룰린
골증식체
전사물
황화
요붕증
세균집락
물렁종
일중
디오반
병원감염관리
망막모세포종
섬모상피
배곧은근
고감마글로불린혈증
절삭기
심장염
과다각화증
저삼투압
거미막밑
달무리
허리신경얼기
화생
호흡부전
장경대
부신절제
기화
헌팅턴병
당생성
약열
관절오목
우두
붕대법
에리스로마이신
운반체
관모양
화농
횡문근
헤모시데린
스피로헤타
우리딘
사상충
굴절검사
부패균
잔기둥
운동신경세포
손목뼈중간관절
호염기성
항글로불린검사
후치료
미결정
목덜미
병독성
재유행
장배
보행훈련
인체실험
전단력
세근
중간엽조직
흉강경
코발라민
프로판올
잔뇨
편도결석
모더나
척추통증
모음근
위험률
피로
모체
집중치료실
위팔신경
장딴지신경
내향
무기염
이황결합
승모판협착
원시선
갑상연골절개
측두하악관절
기관절개
장요
좌불안석
활막
속질모세포
육종용
외사시
펠라그라
위세로칸
고압산소
세포수용체
비빔
스파르가눔
깊은정맥
안구건조증
야간뇨
이자섬
민감화
잔섬유
시험관내
항히스타민제
절단부
안장등
경화태선
철적혈모구
레이노증후군
아스파트산
서파수면
사카린
피개
반코신
대퇴
후두경
인두편도
전상장골극
단백뇨
아데닐산
흉선
폐활량측정
탐식
무반사
간질환
입원전담전문의
홍반열
말초동맥질환
저분자량
활액
연화제
가시아메바
수용체차단제
낙타두창
무성생식
매독성
피펫
상피밑
우회술
수근중수
분만통
과립세포질그물
담낭암
질어귀
혈관치매
성장인자
경막외
혈관분포
이틀신경
진균증
일중변동
트롬보플라스틴
메트포민
비장동
분광광도계
유발검사
심장정지
인지장애
엘라스틱
가로축
땀샘염
조코
감압병
축비
시상정맥동
골학
원반모양
심폐정지
침강속도
알코올
비자기
단핵구
말초부종
수막
이환
내반슬
이중초점안경
재감염
혈관층
이온농도
모종
체온저하
백태
레티노산
그물적혈구
열성발작
비열
원시반사
누두부
간흡충증
온도수용기
통증유발점
나이세리아
시스
림프관종
산약
경대퇴
흡광
수용체세포
총장골동맥
달맞이꽃
퇴행관절염
약물반응
류마티스학
항협심증
뇌실
동맥내막절제
광선민감화
액틴잔섬유
정맥판막
푸르설티아민
열병
비뇨계
딸핵종
겨드랑정맥
체표면적
심방중격
이식학
자연방사선
집락화
분광학
시신경척수염
자궁목
고빌리루빈혈증
경구피임약
팔꿉
방어작용
단백질인산화효소
날개관
다나졸
지시설
목뿔위근육
운동범위
절개생검
반신불완전마비
굴모양혈관
상부위장
백선피
보습제
신장결석
구자
내강
아래운동신경세포
간비대
편도와
시옷
교합면
표적요법
압박기
결절사이
유계
위대정맥
단핵구증
방실판막
균혈증
브로마이드
과립세포
사상충증
엽산
종양억제유전자
힘줄염
알레르기
아테놀올
키모트립신
후두신경
후두개
아이비
방광자궁
태아감시
지방세포
저마그네슘혈증
사면발이
척추염
보체
배변습관
양전자방출
신경재생
신경작용제
포스페이트
위마비
전기충격
베릴륨
베라
거위발
내전근
도포제
포식용해소체
행동수정
좌축편위
임신주수
신독성
딸꾹질
받개
죄임
고랑
기회감염
프로피온산
골반입구
발허리발가락관절
소화효소
칸디다
지단백질
코선반
일반원칙
장낭종
에취
내번
형광항체
알코올의존
적응반응
섬유종
어깨관절염
면역학자
글로빈
누낭
치태
부수체
플래닛
중심절
흡수작용
종자골
낭종절제
가다실
고실신경
매너리즘
포자충증
견갑하근
고암모니아혈증
클로로필
뇌전증발작
선천심장병
견사
경화요법
내사위
복막염
가로단면
세포은행
진핵세포
질확대경
글루타티온
내층
관절천자
등쪽면
정맥마취제
도파민
보결원자단
피질하
핵질
층판소체
슬관절염
콩기름
화학화상
포염
요막관
윤활제
에코영상
눈속
대물렌즈
면역기전
과다구토
확산강조영상
정류
발바닥쪽굽힘
음낭
갈비척추관절
뼈모세포
유제
불투과성
폐포환기
생체시계
치주질환
과소운동
역감염
양성종양
라이터증후군
기관절개관
무기질침착
근육바깥막
계수기
극파
비감염
눈모음
글로불린
혈액투석
유지방
갈근
세포분열
후궁반장
외이
유방암
관절원반
모세관
트립신
폐정맥
재접합
파클리탁셀
요독성
끝판
경산부
흉신경
세포충실성
살갗
갑개
위배출시간
평형기관
젖병
맹장염
지혈제
구토물
구아노신
동맥혈산소분압
심실류
알레르기접촉피부염
구더기증
유행병
스핑고미엘린
수술기구
회문
타원주머니
유착박리
정맥요로조영
광택태선
신배
통증반응
시험렌즈
프로포폴
포비돈
보건정책
씨지
질암
급성충수염
중간창자
일차봉합
전신통증
깔창
누운자세
갑상샘항진증
집락수
디펜신
관장
입모양적혈구
저칼슘혈증
삼분기
조정기
아산화질소
태선화
어깨통증
근력계
외상신경종
신경총
불완전골형성
양심실
접형
혈구누출
비절개
식도정맥
양수천자
생약학
엉치엉덩인대
지연과민반응
융모막융모
사산아
경쇄
적혈구
근위세관
성인호흡곤란증후군
림프순환
단방
놀바덱스
원인대
피질골
후근
신경절제
돌기세포
탐닉
척추관협착증
안광학
가쪽곧은근
발사르탄
온정주의
후천면역
바깥림프
산화환원효소
골염
이마굴
레이노병
근염
수유기
콜리메이터
반복시
뇌척수염
광전자
중이염
선형모형
종자중심
임신가능
맨눈
심실위
망치손가락
방광통
후두동맥
태반
명치통증
후관절
가슴신경
관절골절
다결절
클로스트리듐
온목동맥
외분비샘
장뇌
고환염
악성흑색종
산화인산화
병적골절
지주막
순응성
유리체
거친선
락톤
제3뇌실
근육종
미분화암
게워냄
베타락탐
비타민B1
세라미드
병인론
기관지폐포세척
슬와근
양극성우울증
안장관절
운동단위
동종이형
중간엽종
강축
인공호흡기
꽈리세포
전신발작
막사구체신염
피막외
대항근
내피세포
복합화
맞섬근
자화율
재출혈
골수강
신동맥
비위생
포도당불내성
앞방향
골반바닥
곤봉증
기흉
국소증상
위치이상
사립체
안신경
비모수검정
문합
충수절제
콕시디오이데스진균증
활동전위
엉덩뼈오목
전달효소
무해
요방형근
삼중나선
퀴놀론
도네페질
분리기
케톤뇨
외상학
엎침근
삼각인대
열충격
갑상연골
염력
가성동맥류
구순열
보강제
휘돌이
삼출액
세포질그물
상하부
폐렴
외래진료
단백체
메디케어
정제수
난소낭종
폐렴간균
알긴산
상기도감염
해리장애
양털
면역성
캡사이신
임균
평균적혈구혈색소
교반기
관절융기위
자동조절
바르비탈
울혈
골화
생괴사
지방변성
상후두신경
인슐린종
감각유발
콤파운드
막음
쐐기모양
신경줄기
전자선
심근허혈
불감증
태움
에탄올아민
개재
증식성
암갈색
골내
방사성의약품
두덩근
국소마취제
폐장염
신경자극기
식도경
골증
글리세라이드
방광요관
작업요법
알칼리증
칸디다증
전두돌기
점막근
재귀열
약물유발시험
세동이
아래턱뼈
비인두염
갑상샘기능검사
경동맥초
신경이과
헤로인
주상골
최장발성지속시간
진핵
골수형성이상
안뜰신경
육아조직
인두낭
응집반응
형광항체법
지방분해효소
수분공급
가슴샘종
어깨위팔
발열기
제자리부합
단일신경
내이
의식상태
복합유전
임신낭
세포이동
혈관재형성
사례보고
장골능선
피부진균증
코위관
주변분비
올리브오일
조사선량
섬광조영
삽관
복신
수근관증후군
발치
환자분류
귀관
바륨관장
쿠싱병
난포기
내안각
보툴리눔
먼쪽세관
원뿔세포
배뇨통
갑상샘자극호르몬
가바펜틴
신경반사
미주신경자극
간균
심부정맥혈전증
조직병리학
근육속
푹신
남성불임
탄력소
근건막
유방절제
이합체
포자체
이물육아종
대장통과시간
교란변수
과립구
메티마졸
원당
충수염
설상골
지유
전두
잠재감염
부목
에탄
간질증
만성피로증후군
척수공
증식물
교합
방실접합부
알킬화제
자충
나르칸
견인기
편모충
눈떨림
실리카겔
평균동맥압
다분만
에어로졸
억제유전자
보건사업
고나트륨혈증
질자궁혈종
하루주기
테이코
어깨목뿔근
수증
분할선
오금정맥
바깥항문조임근
청신경
소이증
과잉치료
전기자극
물고기입
농포
빗섬유
세극등
구조유전자
무과립구
조로증
아목실
휜코
내장학
진공관
면역화
빗장밑정맥
리팜핀
녹차추출물
위간
생체공학
보조인자
당량
지능지수
불활성
강글리오사이드
티아졸
산조인
뇌내
중간산물
사향
후신
후두개염
섬유륜
축회전
재분극
공포증
항원자극
수직축
직장경
강직척추염
젖당
청색모반
하지부종
분비기
적하
전굴
질병관리
숙면
병리의사
곁신경절
신경공
알칼리화
청력검사
씹기
완화효과
세포병변
느린맥
쇄석
연골밑
엉치꼬리
중간넓은근
액화괴사
무형성빈혈
파상풍균
제티아
전염병
병태생리학
타이로닌
돌연변이율
기전력
검사대상
엽폐렴
종양발생
타이로신
동리듬
두창
골수형성이상증후군
네모엎침근
온천치료
대조도
정신성
중심정맥압
정맥영양공급
척주앞굽음증
외분비
과다활동
중비갑개
정보제공자
요도염
폐포대식세포
비교법
충격파쇄석
둘레근
콩알뼈
음량
요면
반가시근
봉와직염
벌집뼈
표준균주
분비자극
자궁경
수태
당신생성
수면학
자궁내막샘
자궁관
마르팡증후군
형광현미경
완전관해
기립저혈압
전신경화증
구조식
다태임신
근골격
새겉질
안와골막
글리신
산욕열
면역세포
스트레스관리
근막
구강위생
골수종세포
백질
혈청군
신경과학자
코골이
터짐
성매개감염
뇌실내
방사통
굳은어깨
등분산성
미로염
션트
수술후
부착성
태아발육
식물상
유도철사
공동우성
과간
낮병원
비뇨의학
크롬친화세포
결핵약
미분류
화학량론
매부리코
전조
잠꼬대
분절간
측뇌실
방아쇠손가락
카테킨
근괴사
질정
요골신경
심방수축
으뜸세포
척주세움근
진주종
단일융모막
혈구포식
갑상샘호르몬
라듐
박출률
눈꺼풀염
면역조직화학염색
발성지속시간
뇌성마비
들문
편평사마귀
금속화
응고병증
입덧
비파엽
노르아드레날린
지중해빈혈
혈관확장
혈관긴장도
식품섭취
방전
배란유도
안구돌출
관절면
태아사망
호흡곤란증후군
요로결석증
방광내시경
벤질
풍선확장
식욕억제제
영양공
후향
가로구멍
혈소판유래성장인자
발암인자
연질
수혈자
색각
유착태반
운동불능
항문관
경막외주사
배설강
교정장치
옥사실린
유방검사
골격계
기름샘
불명확
막절제
다지증
페리틴
발진
전환효소
대퇴관
유방촬영
자궁속
권역응급의료센터
숙세포
축추
딜라이트
봉선
가슴막안
보건과학
동정맥기형
흰자위
생식계
난소정맥
세균성이질
큐벳
탯줄혈액
탈수초
포도당액
신경영양
기관지유발검사
감염병
탈취제
광범위항생제
후두하
교감신경차단
조직표본
고단위
악성의
우생학
혈액성
조리개
생체되먹임
이동홍반
띠이랑
선통
시트르산
음경해면체
설하신경
통각수용기
정세관
골신경통
정상안압녹내장
칼시트리올
글루타민산
항미생물
경화증
가시사이인대
유방성형
형질도입
넓은목근
질소혈증
전정신경초종
뇌대사율
안검
재호흡
헥산
살리실산염
원발
세포변성
지방종
감시림프절
농축혈소판
운동이상
격막
림프절절제
아트로핀
골수섬유증
시각상실
뒤어깨
큰마름근
윤활집
급성염증
초음파영상
뒤뼈사이신경
각질가시세포종
벤조산
지연기
골연골종증
대능형골
뼈사이
혀밑신경
견관절
단면연구
반월판
구불
가운데손가락
마미
콜린차단
배출관
강화작용
늑골척추각
강내
임상증상
운동학
분자병
아미오다론
프로타민황산염
심근수축
검역소
양치액
중간기
골지힘줄기관
피부사상균
굴절부등
전신아밀로이드증
이상운동증
게실
배위
혈관이완
헨레고리
전체혈구계산
트레티노인
심근질환
미생물학자
운동신경로
섬유화
과립층
해열
용수철
위벽
연구계획서
영상재구성
요추간판탈출
표면전극
유사천포창
사이세포
자통
아바프로
올가미
혈액여과
보건지표
사산
걸림
단일유전자
배아암종
상동성
좌약
지연유합
프리필드시린지
유산율
배액관
점액종양
산과마취
정관절제
전신반응
소전자
바닥동맥
앞톱니근
브라디키닌
중절
공중위생
정강신경
시신경교차
신경활
간비장
관주위
질증
색전제거술
만삭아
딸세포
족배동맥
패혈
신우조영
안토시아닌
편모충증
청호
만성간염
치밀골
황체낭
중대뇌동맥
소능형골
관절융기위능선
능형
피마자
근종증
삽입물
비말
앞목삼각
듀로제식
도부타민
미생물학
상황버섯
농축적혈구
전자기파
연접틈새
속질핵
신경차단
이차감염
과다염색
관형성
중복증후군
임질
신생아학
희소돌기아교세포
변곡점
핵절
한관종
근허혈
종자계
운동발작
천식발작
작열통
알부민뇨
두드러기
혈장분리교환
맹출
진교
항원결정인자
생물리학계수
축이동
스핀에코
대용품
뒤안쪽
모성사망률
젖산산증
베타딘
기미
재고관리
반고체
척수반사
요실금
관내액
자궁천골
암발생
하행결장
바닥상태
차멀미
하지불안증후군
악력계
페롤
절구테두리
뇌실외
구획증후군
전파성
섬유세포
글루타릴
내피
뼈연골
난치
호산구
스트렙토마이신
성위생
고정기
제왕절개
척추전방전위증
유두층
호모시스테인
구면수차
입체이성질
여윔
총비골신경
피부섬유종
수소효소
약물알레르기
단단입천장
영상법
혈액질환
막대세포
중증근무력증
소양감
혈관증식
두개저
임신기간
석시닐
주사전자현미경
다뇨증
저압
심부선량
동방결절
조가비핵
백삼
복제수
단삼
복막뒤
치료저항
철결핍빈혈
혈색소병
비스포스포네이트
코중격
항글로불린
기도감염
불응기
수두대상포진바이러스
입쪽
가동화
칼시페롤
허리천자
초음파진단
압력손상
섬유단
뼈형성
뇌활
윤활관절
목말뼈
아황산
난관난소
미네랄오일
영양상태
자동화기기
소듐
난포낭
지질용해도
시네메트
시야검사
방광요도
악성종양
민감제
심박동
니페디핀
아탈구
부신경
생물표지자
분극
오배자
글리옥실산
위장염
안타부스
카디오리핀
폐활량
수술중
경사대
발처짐
어깨목뿔
접형동
구순
산술평균
소체
타르색소
T파
조기수축
미세혈관계
벤포티아민
가락염
바나나백
돌기사이관절
파이루브산
골수공간
인대학
눈물흘림
인산화
추체신경
혈전미세혈관병증
소아당뇨병
이상증
혼수상태
자가면역간염
감염기
완화제
집락형성
정신건강의학과전문의
보통사마귀
고염소혈증
전기전도
구진
경막
당뇨병
손발톱바닥
하향조절
입인두
수용기
기저선
볼기뼈
물리치료
전구기
심장막
생체리듬
근초
극하근
안식향산
혈전혈관염
털세움근
혈성
염전성심실빈맥
반신욕
비익연골
시상정맥굴
편절
카보닐
땀구멍각화증
세포괴사
질위
송지
항체선별검사
핵체
횡문근융해
신증후군
감수분열
발달지연
아래바위정맥굴
덮개막
종분화
응급구조사
체모양
위장출혈
골괴사
화상흉터
방사선종양학
소골
유사물질
실모양
그렐린
반구절제
수막염
머리뼈안
태아혈색소
바이러스혈증
슬와
안뜰창
포도추출물
발꿈치
로페라미드
대내전근
색소레이저
프레시
자아발달
혈관저항
아위
홍역
리놀레산
발색반응
완하제
교차반응성
쿠마딘
젖샘관
위볼기신경
단관절
홍삼농축액
만성편두통
위염
힘줄반사
골흡수
세포바깥
에크모
상내측
목말받침돌기
닭살
발배뼈
경동맥내막절제
둔마
요천골
압착
종열
종말세기관지
태선
근지방종
애디슨병
사고사
고지혈증
수송체
부갑상선
민말이집신경
자유전자
대동맥염
소마토스타틴
도착증
혈관연축
핵산증폭검사
시신경교종
생명현상
바깥엉덩동맥
요통
활성인자
척삭동물
인테그린
독성쇼크
펜타닐
황선
임상전
규산염
갑상샘염
백선증
종양절제
좌심실비대
적출
페레독신
암점
에토미데이트
글루타치온
안저촬영
식도조임근
근육층
감시장치
마늘
기대여명
오페론
대변잠혈검사
뇌섬엽
클로닝
봉입체
맨손체조
조영증강
국소치료
정신활동
엑손
음부신경
근상피세포
불완전형
행정가
골수흡인
임상검사실
추가접종
요관결석
차폐효과
직접빌리루빈
다유전자
윤활주머니
구충
입천장뼈
과립구집락자극인자
이엽
신장학
난관결찰
위창자길
외안근
아크릴레이트
봉우리밑
메트로니다졸
정맥굴
산화아연
각화증
배중심
혈전용해
머리-얼굴-목-증후군
배출물
1수용체
세포입
뷰티르산
기형유발
신경염
제뇌
계통학
완전틀니
라니티딘
비병증
홀정맥
우슬
경계성
신병증
근경련
장액낭
축면
부속기
백질뇌병증
미끄럼운동
견갑하
얼굴신경
종축
우황
고형암
배아발생
단일클론항체
섬모충
흡입물
산소혈색소
전위도
판테놀
혼합물
서혜부
노신경
당분해효소
각질용해
혈관경화
촉매반응
중력장
탈지분유
정신과의사
유사증례
실금
뒤위
흉쇄관절
충전물
농가진
선량측정
출생체중
치과교정학
삼투압
근섬유다발수축
등장액
과립세포종양
석산
탈구
흡반
대사알칼리증
신경마비
세포골격
후두경련
요막
기관지확장제
십자인대
보골지
송진
곁사슬
후각상실증
세이지
상처치유
비루관
수혈
허리근
결절
정상분만
항균제
삼두근
형광색소
상장간막동맥
가변부위
신경매독
나종
강장제
일차예방
첫마디뼈
지루각화증
다형홍반
신체조성
가슴등신경
두상골
후비루
길항근
동반질병
정자세포
면역보강
천공
복장뼈몸통
흉부대동맥
카복실화
카탈
담즙
폐포세포
주입기
태아막
나선기관
하퇴
전정기관
사이클로트론
당김
집합계
지방괴사
항원결합부위
가성안근마비
형성저하증
설치류
위팔세갈래근
면사
산업의학
성대결절
유리섬유
오목
복합골절
동기성
면역혈액학
천공술
백과
적색골수
향정신
무치
모뿔연골
울혈성심부전
좌상
환경의학
별세포
냉동요법
붕소
척수손상
가쪽고랑
알균
명목변수
심방귀
가슴샘세포
단백질분해
신경발생
적혈구증가
아편제제
맹관
음부동맥
십자인대전위
부티르산
유전구형적혈구증
세포소실
거대세포
면역반응
조절마비굴절
목단피
갈락토스
검안
별점
주변시
해독틀
항원제시
면역무반응
활성전극
자소엽
유육종
리피드
신경전도검사
진핵생물
방출호르몬
자율신경
사마귀모양
표본추출률
치료학
양성신생물
가쪽덩이
칼란
혈압상승제
무릎핵
뒤십자인대
귀밑샘염
감시마취관리
페로몬
소화계
A군
추종운동
확산계수
음식조절
시신경관
압력차
가시세포
기관지수축
동축
수면병
신경세포질
중심체온
거미막
부표
세크레틴
림프절
자일렌
동반증상
세포원심
알파과립
혈관투과성
척수마취
탈모
염화칼륨
손발톱
치질
홑염색체
원위세관
배출기
리듬장애
혈량저하증
관절강직
효소억제제
제한효소
집먼지진드기
신경계진찰
피하지방
시신경초
심장통
병원내
갈리
과립층세포
보행검사
유전변이
태반조기박리
켈로이드
원충
돌연변이체
평형감각
붓목뿔
부분발작
고분자글로불린혈증
족저동맥
샘상피
젖꽃판
척측수근굴근
결장염
경구피임
장액종
열성경련
로수바스타틴
혈전제거
짧은모음근
효모균
이중나선
이공
삼각피판
종양유전자
완선
근긴장
가슴막
궁둥뼈결절
핵소체
끓는점
탁음
보조운동
주사
자유모서리
흉골병
시상봉합
수근골
교잡
빗장밑동맥
살리신
혈구계산
위밴드술
눈물뼈
아마씨
황체기
끝분절효소
첨족
상대위험도
독물
생식샘자극세포
후두동
사구체질환
족관절
항산균
골종증
피임제
해면화
야간혈색소뇨
유량계
테트라사이클린
신경작용
직업력
두정
아스코르빈산
신경초
피부기름
톱니모양
평균적혈구용적
신경교종
거르기
소흉근
항원변이
강활
한랭글로불린혈증
심장신경
렙토스피라증
늑골척추
이끼섬유
인공신장
유전자증폭
돌발파
추골
항혈청
킬로그램
인년
텀스
필라델피아염색체
심장성색전뇌졸중
예르시니아
전신부종
루테인
자궁주위
배측굴곡
자궁외임신
외골증
국소해부학
이성질화효소
화학박피
커마
혈압측정
강성도
침강계수
오링
소변검사
섬유소분해산물
전기자극기
정맥내
각막혼탁
건선
척추전만증
병기결정
다분만부
기형유발물질
필수지방산
직립
글루코트롤
감응
결핵종
혈액은행
다리궤양
장루
척추사이
정상혈당
윤상갑상막
만성기관지염
질관
이물감
부분틀니
합성효소
천골부
글루칸
자연살해세포
잔물집
정자발생
성홍열
에스몰롤
횡격막
경천
단일시
가시위
피지샘
이완훈련
대식세포
쇼크
세극
상피모양세포
섬모체신경절
골화석증
부증상
저체온요법
흉수
산화환원
산소화
다이란틴
발작후
볼근
알코올중독
아주르
유발점
매독균
골연화증
글루코코티코이드
방광요관역류
면역복합체
뇌수도관
아포크린샘
효소원
반지연골
자연치유
흐려짐
엔테카비르
하엽
고프로락틴혈증
결정기
일차선택약
방실결절
토리바닥막
병원소
멜랑콜리아
축삭종말
외골격
폐동맥
두충
명료도
세균혈증
황화물
프룩토오스
피부염
낭형성
신경생물학
프릴로섹
버팀세포
저장철
원인물질
둔위분만
부탄올
세쌍둥이
항감염제
기관지천식
일반외과
복장빗장관절
재골절
단공
치매
섬유결합소
소염
자궁강
집먼지
추정진단
내장감각
앞뇌
면역접종
방사성핵종
관통정맥
전립선암
난관절제
혈구
대흉근
보철학
척수압박
피부섬유육종
백질변성
데옥시리보핵산
아스페르길루스증
적혈모구빈혈
피부증상
비특이
무이
정지기
강하제
감각신경활동전위
개별항원
탈장
비타민E
외향
피하낭
비균질
글루타싸이온
플루옥세틴
연속변수
꼭지돌기
플럭스
전달마취
아래소뇌다리
동공부등
칸디다혈증
낭미충증
세동맥경화
중격
유발시험
면역혈청
장간막
내시경수술
프로테아제
그람양성
계지
유두모양암종
부동섬모
사기질
시메티딘
지방육종
주조직적합복합체
사이안
원지
명치부위
이축
케톤생성
네발기기
하루주기리듬
결정침착질환
복통
퇴행병
장기요양서비스
내장운동
혈관주위
비구와
췌담관조영
호산
의수
목정맥
양성자펌프
전자간
근육질
셀룰라
동결건조
가로세관
요골
산화질소
재삽입
디메틸
외림프
이형접합체
낭종
면역확산법
이나이
기도과민성
임상소견
심장소생술
배양기
위팔자관절
볼기동맥
눈운동
폐흡충
상악동염
골반염
생식자
태아성장제한
수모세포
기관내관
두극
항류마티스제
면역원성
후족부
동분
진드기매개
세라마이드
근육통
안경사
토혈
자가면역
문맥고혈압
야맹
염화칼슘
자궁근층
속목정맥
거골
범유행
전암
압출
삼염기
구아닌
가슴안
다발갈래
소둔근
접종기
응집능
목덜미인대
뼈사이막
과신전
반사기
흡인생검
정맥확장
리보플라빈
카테콜
제2형당뇨병
증기멸균
측두엽뇌전증
림프구
후골간신경
경막외마취
반응관절염
코눈물관
고산병
망상적혈구증식증
달팽이신경
내측광근
이행상피
뭉친염색질
서캐
글리세르산
역동학
자가면역질환
고립로핵
나트륨
유피낭
경막외공간
신속운동
보행장애
황산바륨
연결선
비듬
파라티푸스
수동면역
적혈구증가증
양압
자기자극
측두엽
개방각녹내장
방광내압측정
포식소체
요로상피
작용근
세포사이
혈전용해요법
항혈소판제
사구체모세혈관
색각검사
아속
앞굽이
입방형
비타민D
강황
승압제
다축
위전도
조직배양
경련통
전능
테리파라타이드
산화상
구개열
중성구감소
생활습관병
카놀라유
상심자
이석증
단백질분해효소
인삼추출물
참고치
일광욕
안륜근
당대사
해열제
포도막염
초음파검사
각막확장
지연효과
속판
부전골절
가피
둘레계통
로비투신
충양
내막
과식
대변실금
심실부정맥
분리췌장
나선동맥
청각과민
분비과다
정상체온
발음장애
심장마비
킬레이트화
사두근
도수정복
진균류
적응증
분석물
속쓰림
구내염
신장절제
내출혈
피질척수로
고칼슘혈증
칼프로텍틴
간접빌리루빈
복측
뇌연화
약력학
골연골증
요세관
대장암
생물학적제제
관절신경
비커
폐포자충
족무지
지역사회획득폐렴
발관
정위방사선수술
복직근
신경능선
청력소실
부리위팔
뼈세포
점막절제
하행대동맥
다당
뉴클레오타이드
세포뼈대
눈물막파괴시간
바닥막
지실
파라핀
골단
심부전
미세소체
혈우병치료제
나이아신
정맥관
설측
좌욕
외부생식기
학업수행
두개인두종
유방비대
손목손허리관절
오탄당
반가
혈관모세포종
휘돌림
활막육종
신성당뇨
통증발생
산증
장중첩
대상포진
근육다발
굴염
무산소운동
피부주름
대복재정맥
에스트론
전지대
유도관
척삭
척추천자
보조효소
세척기
젖니
자연선택
억제호르몬
근육경련
불완전골형성증
광색소
궁둥구멍근
관상면
코데인
셀레늄
자궁경부염
효소억제
인수공통감염병
연동운동
잠복결핵
발목뼈
다한증
단클론항체
가관절
가로절단
편광현미경
뒤아래
간염바이러스
경구섭취
폐색전증
연골내
심실
볼기근선
봉합사
치밀이음
여과율
대퇴통증
다핵세포
복강질환
레이저수술
그렁거림
위동맥
지혈대
신경외배엽
난소염
가지돌기
자가지방이식
목뿔혀
사분역
도박장애
근간대발작
부교감신경계
유주
장기기증자
생체재료
거짓양성
신경성형
메틸렌
요속
버짐
엄지발가락가쪽휨증
속질
근위축
날록손
심박수
모낭종
근간대경련
홍채
속섬유막
온종아리신경
혈류량
총폐용량
경동
표피내
이감염
축영상
비연골
빠른호흡
선량계
과다색소침착
에스트리올
자궁수축억제
영양막종양
호염기
거즈
욕지기
환각제
구루병
복벽동맥
쐐기뼈
리시노프릴
시각교차
솔비톨
세로칸
플라빈
자간
상동염색체
장막염
진균종
골반내
의학검사
프로트롬빈시간
텔비부딘
마이오신
바이알
인두성형
염좌
양막
부종
대머리
타이록신
트리메토프림
뇌간
엉치신경얼기
갑상동맥
도체
전정장애
관절주머니인대
음영증가
우울증
혈관조영
기형종
세포면역
이온이동법
독성표피괴사용해
여성형탈모
가로면
자유기
숙신산
환원당
질식
색전술
실험식
신경분비
사이질
통과시간
입천장인두
섬모체신경
산동제
메트혈색소
지질분해
담즙산염
해면정맥굴
하악와
학습장애
반지세포
발성기관
분비억제
정맥절개
바이러스학
뇌전증학
림프절비대
영양실조
창백핵
기운목
숲모기
능동수송
쥐약
감염사
신생물딸림증후군
아드레날린차단제
들세동맥
바셀린
뇌기저동맥
모낭
기능상실
태아알코올증후군
신경관결손
노근
병소
유리화
되돌이
요충
진균학
작은볼기근
인산염혈증
할로페리돌
도난시
무기화합물
방사선투과성
날개입천장신경절
비근
판코니빈혈
발세포
고유감각
이온수
자궁내막모양암종
이는곳
림프상피종
환시
나이트로
로게인
내시경술
환경인자
형성력
인슐린
인대결합
근섬유
대뇌증
지방모세포
임신검사
펀치생검
관절구축
팔다리마비
무독
혈관주위세포종
알코올성간경화
다세포
구취증
발프로산
리바록사반
피떡
인공호흡
테타니
과다환기
모자이크현상
정형외과의사
이온강도
인접면
침습성
호일
췌장염
순계
백색속질
자간전증
펄스
파상풍
인공눈물
아토피천식
쿠싱증후군
무정자
핵막
가려움
피막염
정맥동혈전증
유방염
노쇠
콜레칼시페롤
프롤린
내성장
부비장
자뼈
안쪽들림
성학
섬유소원
갈비사이근
홍역바이러스
설프하이드릴
척수원뿔
박출량
잠복감염
크롬친화세포종
율무
환기기
수중운동
가쪽반달
트레포네마
뼈스캔
한포
양치질
치결절
상피조직
시각상
압궤손상
트라코마
아나플라즈마증
공수병
위치에너지
나선형의
공시험
심부
날신경
잠재기
연충
인화성
항원항체복합체
수포형성
발작
세포질분열
지역사회간호사
지황
급성신부전
극상근
접형골
개흉수술
라드
염증세포
바륨
무릎체
인공수정
루푸스
섬유상피
트리암시놀론
수면무호흡
갑상설골
제타전위
기절
층판뼈
팽대
대사물
단내전근
그물모양
두눈
인설
반사궁
근피부
흡충
넓은등근
조절마비
고주파열치료
가성낭
유착관절낭염
굴절계
가로정맥굴
안뜰척수로
치골결합
위턱신경
안구내
완충계
아픽사반
골반안
안각
랑게르한스섬
무형성
테오필린
요사
진피유두
순환면역복합체
심혈관질환
목말밑관절
아질산염
간찰진
피하
프로트롬빈
근육힘줄
안뜰눈반사
단백체학
말이집
뎅기열
부하용량
와파린
편도체
만성췌장염
깊은손가락굽힘근
산화알루미늄
종양항원
내연골종
무릎아래
교소
치골지
측두하
접합부
코인두암종
대후두신경
차전자
안쪽발바닥신경
나트륨이온
속도상수
공기가슴증
백색막
탈수소효소
방사선검사
독성과립
무혈관
주기마비
살모넬라
기태
모충
교모세포종
수면다원검사
통각
태아심음
당분해
요산결석
말산
치료용량
심전도검사
클레부딘
폐쇄공
신생아실
주작용근
부교감신경
인두주머니
동요가슴
락타아제
림프계
설폰
강화요법
협근
이식편대숙주반응
털집진드기
캅셀
비출혈
비말감염
전방절제
디피리다몰
수막구균
수근중수관절
심근경색
재거돌기
상보
신경섬유종
부고환염
골파괴
특수감각
돌림근
조혈조직
국소감염
폐쇄동맥
머리뼈
압력계
공생균
간질
부착포
망상
성대마비
신경뇌하수체
상사근
혈관미주신경
트로핀
요역동학
브루셀라증
흥분제
겸자
후비루증후군
겨드랑림프절
허혈뇌병증
전도율
간헐외사시
병전
기관기관지염
다열근
맥관
경구혈당강하제
분자체
씬지로이드
무감마글로불린혈증
저부
인슐린저항성
동감
하반신마비
초점심도
가양성
건강기록
한랭글로불린
소당
열두조충
열요법
프레드니솔론
운동중추
중쇠관절
파라단백질
복령
시각조짐
입체현미경
형질막
가쪽날개근
섬세포
화학요법제
겨드랑동맥
담금
위출혈
측각기
피리독신
항문주위
상엽
후각망울
병리진단
연마제
탄력섬유증
피부반응
재활동
근육세포질
결핍증후군
단각
기도폐쇄
풍선확장술
내당능장애
목마름
단세포
애벌뼈
분자유전학
결합조직병
연화증
내사시
세프타지딤
무병생존
혀뿌리
척수증후군
임신나이
면역억제
같은팔염색체
뼈잔기둥
아노머
관절염환자
이산화규소
큰원근
주증상
사이질액
집행기능
융해
디곡신
인공영양
림프종
감별계산
완전탈구
공기색전증
표면활성물질
질동맥
운동피질
폄근
무감각
자동증
반신마비
디클로로메탄
벌레근
세포배양
상피화
크레틴병
등허리근막
신경재분포
스펙트린
신스캔
내성검사
불확정
각도계
부전마비
생식능력
무열
전향연구
탈륨
셀룰로스
동전습진
리보핵산
청력장애
골재생
맥박수
인공음영
포자소체
결장직장
손놀림
가수분해효소
태아감염
근연축
코감기
수질암종
과배란
대뇌반구
땀분비
우레아제
촉진인자
갑상샘글로불린
조혈성장인자
동맥내막염
형태형
림프절염
늑간
내독소
영가설
옥소
척주옆
뼈사이신경
줄기세포
항혈전제
위내시경
빈크리스틴
림프관
류마티스
담즙정체
환원제
청색증
실바데네
경직
기면
신호강도
무균술
펙틴
폐절제
결장절제
융모막암종
대동맥박리
십이지장궤양
백혈병
뇌전증지속상태
치골
사삼
무감동
투과전자현미경
안구내염
정중곁
신경외막
상산
복장갈비
후상
허혈손상
잠혈검사
약물상호작용
이갈이
뇌실내출혈
근관
인두통
볼기부위
엉덩
격노
총백
심장도
액화변성
증식률
보통염색체
태아단백질
골수생검
다음증
교차감염
성체줄기세포
흉강
근융해
손목굴증후군
폴리오
코레그
혈관계
막증식사구체신염
정염
시신경유두부종
골수단핵구
성장주기
장절제
근육돌기
널힘줄
암육종
비수축검사
심폐기
아래대정맥
중화항체
티눈
발디딤
가시위오목
에스터
협부
짧은뼈
병적반사
모반
고래회충
전신방사선조사
림프조직
반가층
골연골염
폴리오바이러스
골막염
거미막밑공간
맥락총
자궁질
자율신경절
접합자
막대모양
화학반응
형성이상
교차반응
십이지장염
근비대
굴근
흡입마취
접지전극
외비
예방접종
후전위
결찰
탈지
수막증
귀밑샘
자기항원
간증
이상와
요산
양수과소증
눈구석
시프로플록사신
갈비사이동맥
임상기록
면역거부반응
열피로
혈액성분제제
안검하수
단핵세포
자외
뇌척수
액화
로바스타틴
구강점막
침투도
용혈요독증후군
연골결합
폐첨
팔이음뼈
목뿔위
크립토코쿠스증
혈중농도
교차내성
세동맥
자세불안
폐쇄증
심리사
아편유사제
위팔
에스테르
목통
카복실
성장애
액체배지
베르니케뇌병증
전자간증
점액샘
표피성장인자
발바닥널힘줄
암로디핀
폐흡인
클라인펠터증후군
뇌파도
아밀
우르소데옥시콜산
슈도모나스
내피밑
초미세여과
불안장애
성분채집기
경사에코
치밀뼈
후두개와
방실전도
통풍
바깥귀
고리뒤통수
역전사효소
중심시력
인공심장
유리수
백일해
소르비톨
체온상승
고열
신경집세포
급성기반응
위가쪽
물중독
허리통증
면역조절제
무뇌증
속폐쇄근
가시층
유방증
골수증
부신생물의
전립샘암
알코올남용
숙임
보균자
유전물질
쌍자근
회색질
림프구감소
발진열
조산사
배곧은근집
액틴
중심소엽
글라이신
발효균
구불창자
뼈자름
경구개
렘수면행동장애
요척골
부비동
가시아래오목
신경상피세포
생식샘자극
경골동맥
위팔노근
펩타이드
불내성
과립세포질
조혈계
림프구증가
현정석
반사경
전도장애
모의실험
톡소포자충
신경판
고름집
경화성
정지점
윤상인두
허혈뇌졸중
등시
발진티푸스
술잔세포
임종간호
방광목
비결정
티볼론
인크레틴
외음
해분
생검
재위치
동맥협착증
적혈모구
두덩정강근
췌장성
자가면역항체
바위신경
발육부전
비대심장
보균상태
심방
부정유합
췌관
정맥마취
횡행결장
탈과립
인산화효소
목구멍편도
영양결핍
피부판
골막
후두골
인지평가
심첨박동
우심실
작은어금니
신결석
소독기
출혈뇌졸중
조직적합성
인두제
망고
교통가지
처짐
퍼플
펩톤
항균제감수성검사
위산과다
신경얼기
음부
유두부종
점적
수혈반응
반응물질
호흡곤란
말총
손목굴
퍼짐
항히스타민
빛반사
중수근
찌름
수면잠복기
희발월경
병터
버킷림프종
상장간막정맥
이산화질소
어교
사고장애
제암
자가항체
합사
근긴장이상
가쪽
빌리루빈혈증
톡소플라스마
대퇴사두근
골수종
소생기
순음
아리피프라졸
출혈열
정맥압
조기진통
순환부전
요로병증
트레오닌
왜소증
난소낭
둥근주머니
여성형유방
항응고
싸이올
전자수
전리방사선
리파제
폴리펩타이드
과립백혈구
피부굴
한타바이러스
근반사
두덩결합
판상근
신경절차단
엉치뼈
혈액량
폐기능검사
견갑골
사건수면
누출액
아드레날린수용체
무기력
근육뼈대
콕시듐증
앞방
이진수
신약허가
징코
측면상
트리거
태반통과
열경련
완전골절
갑상샘자극
통풍관절염
음성증상
섬망
니자티딘
주시유발안진
부착부병증
근육뼈대계통
자염
습진피부염
야토병
윤활낭
항생제요법
후방경사
수막종
몸백선
정모세포
목신경
관절돌기
막대균
산욕
파슬리
보건의료체계
코코넛오일
세포유전학
무균수
성끈
요오드
모형화
프로타민
크레아티닌
옥시코돈
고정섬모
비장굴곡
엉덩허리근
시트룰린화
긴발가락굽힘근
이질아메바
정신질환
광시증
대퇴근막
개인위생
심박출량
근위축측삭경화증
세포예정사
동공조임근
비구순
이발생
견갑상완
비만지수
고약
치환체
경피흡수
역형성
동맥관개존증
자쪽피부정맥
복장빗장
모뿔근
조직구종
글리부리드
급성심근경색증
자기분석
병식
증폭기
피부밑지방
합음
다낭신장
콜산
로타바이러스
백분위수
구형낭
단태
우라실
산소포화도
알레르기결막염
유각기
부정맥
상과염
난원창
자극조절
발달이상
유두종바이러스
셀렉틴
모성사망
위절제
골낭종
희귀약
강직발작
프리바이오틱스
이상지혈증
자반
뇌하수체호르몬
평형반응
방사면역측정
요도조임근
신부전
척수병증
생물의학
흡입요법
세포질내정자주입
혈관내피성장인자
간섭현상
싹틈
혈관경
설상
골격근
모세혈관
기형성
중막
대동맥질환
생체이용률
콧길
대체의학
병풀
눈동맥
눈돌림
육아종
일반선형모형
의식저하
위식도역류병
흉터형성
발등동맥
위치결정
면역용혈
약리작용
전도차단
전이
골격근이완제
작은가슴근
신장병
무세포
속귀길
내분비기관
혈액배양
호흡기질
꺼풀
대동맥판역류
치환기
단층촬영상
투명세포
금속단백질분해효소
구연산
목정맥구멍
접합체
동적자세
하대정맥
청각유발전위
용해소체
글라이콜
간세포
탐촉자
루푸스신염
소엽사이
굳은궤양
기준점
반투막
조혈인자
염소혈증
어는점
조혈기관
압축기
레바퀸
동시감염
신장결석증
구획화
요독증
체내흡수
무척추동물
피부경화
직장출혈
신경해부학
미세전이
뇌바닥동맥
상복부통증
표준화율
복셀
유사실험
근육감소
살균작용
혈관운동
갑상샘눈병증
캐뉼라
발목굴
뒤정강동맥
수침
대변덩이
초과산화물
신경혈관다발
반지손가락
알로글립틴
불수의근
항구토제
혈액우무배지
동반진단
급성용혈수혈반응
원활추종운동
인구조사
배측
용해물
살리실산
유전자재조합
팽출
최적표준
개형
교이
담석증
사구체
포충
작은바위신경
농축액
푸로세미드
폐쇄구멍
수모세포종
상공막염
시상단면
무배란
찔림
대동맥활
비뇨생식
편평태선
연교
조직은행
공막염
전대뇌동맥
부신수질
기능이상
손발톱주위염
반구진
압박궤양
손발톱탈락
현호색
털세포백혈병
영상처리
시동체
측면영상
요로조영
말단기
반사이상
플렌딜
폐모세혈관쐐기압
잔틴
로진
혈뇨
진폐증
임신율
소절
불완전탈구
결핵진
치핵
접촉피부염
직장폴립
부식제
생백신
원자단
감마선
고분자량
중둔근
임상술기
세침
결합조직
산화티탄
외안각
바로누운
기관지폐
도관
윤대
자궁파열
섬유증식
목향
병리학자
꿈틀운동
유전자분석
발달장애
분엽
뒤교통동맥
수면제
열량섭취
위액
움직관절
구개골
효소유도
페노바르비탈
힘줄끈
마비제
작열감
면역혈소판감소증
간고정
물갈퀴
칼슘뇨
이산화탄소레이저
감소기
척추원반
페이스트
이미다졸
천산갑
세포병리학
줄무늬체
대퇴골
비인두
자노
수포
근육긴장저하
활성형
갈락토스혈증
전경골동맥
운동저하
축합
코일
다염성
자궁내막
인공조명
부신경절
에탐부톨
면폐증
안근
고형성분
조직적합항원
투석적절도
유행성이하선염
시각유발전위
심장독성
탈수
전구증
에피네프린
색소세포
냉매
횡격막신경
발허리뼈
음속
신경독성
축착
유해반응
턱끝목뿔근
골수억제
알레르기비염
과산화수소
낭샘종
치료범위
급성호흡곤란증후군
긴가슴신경
신경모세포종
손허리
오로트산
쿠마린
영상분석
대량수혈
맥아
고리홍반
엑스산
속단
기생충질환
군날개
만성육아종병
잔비늘증
다발근염
점막밑층
배뇨근
유도인자
기록부
유구조충
건강지표
울혈반
원형세포
위팔휘돌이동맥
운동점
유방확대
여과액
코담배갑
심첨
감각수용기
갈림
자연배출
추정값
뇌이랑
고름딱지증
긁어냄
간대성
팔오금
신경절단
의료재활
급성신우신염
평형모래
폐쇄폐질환
분해효소
길경
위운동신경세포
좌골신경
뇌줄기
싸이오
베타용혈
본초학
시티딘
운동앞겉질
연조직염
얼굴정맥
시각각
붓돌기
외막
적심
리도케인
삼백초
수면위생
유리피판
철심
마리화나
전리함
내복사근
동충하초
아급성
신경파괴술
직난시
탈수효소
엉치신경
혈관모세포
운동마비
초음파유도
발생학
고실
심장세포
최대선량
매끈
유두모양
귀지
건강염려증
중복감염
먼쪽부분
선형가속기
자유신경종말
보철
관절성형
그물세포
소장결장염
목말밑
근육병증
핵산분해효소
신약개발
샘기능저하
선조세포
지방제거
근조직
교란요인
축편위
버거병
트리글리세라이드
류신
삼각근
현초
위루
흉곽내
말초신경
안진검사
방광염
징조
스멀거림
흉복
지방생괴사
괴저고름피부증
감각이상
응급의학
갈비사이
헤마글루티닌
결명자
전층파열
엄지발가락가쪽휨
가로막
좌골결절
대원근
동공수축
용골
근거중심의학
수축근
합텐
당김기
체반
혈흉
빛간섭단층촬영
지역사회보건
막창자
전두부
백판
연골연화증
라미부딘
무조짐편두통
몸신경
응고기전
발기조직
해마곁이랑
갑상설관낭
선별기
진정제
양압호흡
뼈단위
충치
뼈분절
인진
밀크시슬
아목
저장기간
천골신경
외반족
신경상피
무발생
뇌수막염
발관절염
중간숙주
깊은힘줄반사
절연
전체혈구
감마글로불린병증
두개인두
지질혈증
잠복고환
월경전증후군
유성생식
대퇴직근
세포내
절박
신경조절물질
트란스
원위
의문핵
후방탈구
알레르겐
초산부
열성유전
중산소
신경근육
연관통
수막알균
얼굴마비
황색종
산화티타늄
소화관
코호트연구
삼킴곤란
악설골근
보존제
저섬유소원혈증
시운동
동종접합
성장자극
주성
융모양막염
이성형
할구
입방상피
전위피판
미세융모
간유
마름증
야식증
방사선투과
대천문
털세포
간기능검사
배꼽주위
좌심부전
하지정맥류
자가반응
만성사구체신염
접촉면
주두
카타푸레스
기시부
청역
알레르기항원
생체막
긴장근
음낭수종
보조제
열화상
말이집탈락
탈신경
집락자극인자
전기수술
피프로닐
호소증상
피부선
아르기닌
비저
죽은조직제거
이식물
이온통로
이두근
구강기
자궁수축
표적장기
관절조영
근세포
신장성
무릎관절염
운동종말판
간절제
침흘림
세노사이드
세기관지
혈관통로
갑상샘저하증
뇌량
농흉
고혈압
태아심박동
황산염
추체
유산소운동
태아머리
아데노이드
옥살산염
유전병
모트린
포도알균
하안검
항원충제
통로차단
아목시실린
전자밀도
동물실험
성분채집
아디포넥틴
과호흡
건성
전도속도
정맥도관
언어중추
진통제
분할조사
전립샘비대
검체
목동맥
선조체
증균배지
뇌전증약
고장액
수혈관련급성폐손상
긴장동공
케톤뇨증
구진발진
세포부착분자
소핵
피각
병용효과
가쪽복사
동형접합체
치밀반
내측과
시기능훈련
합선
섬모세포
키트루다
의료분쟁
굳은살
크레아티닌청소율
바깥돌림
펴바른표본
익구개와
다핵거대세포
안정협심증
체외수정
두개내압
배수성
적갈색의
카탈라아제
씹기근육
골수세포
집광렌즈
올리브핵
고에코
각피
역학자
정상값
수정체
뼈연화증
동형
타목시펜
질건조증
내반
대뇌다리
분무기
곁순환
이염색체성
경막하출혈
확률분포
양막종
아토피피부염
후두실
호모시스틴뇨증
작은머리
점액용해제
지방이상증
물렁입천장
세포외배출
레시틴
클로람페니콜
온천요법
속막
비골신경
장운동
부신부전
담관조영
결절경화
갈비빗장
약동학
오공
식체
하방주시
프로게스테론
경추증
신경압박
위궤양
배꼽탈장
피부경화증
피임
검정력
층구조
당화혈색소
시상밑핵
형태학
하고초
지압
비자발
저혈당
리크
부챗살
꼭지핵
지방유래
광수용
윤상갑상연골절개
적핵
신경자극
후대뇌동맥
우황청심원
연구계획
추간
해쓱
충란
난황주머니
디조지증후군
등척성
설사
이뇨제
폐질
정강뼈
맥파
신생물딸림
장결석
위팔뼈
가청
브롬
각화
뼈돌기
점액암종
네프린
지주막하
후두암
운동반응
대증
카티스템
반동
덴탈
태향
스테로이드호르몬
곧은혈관
등쪽
스큐편위
소발작
오약
회음
글루타르산
발꿈치뼈
꼬임
이소프로필
편평세포
용해소
위팔동맥
복횡근
삼일열
전신염증반응증후군
광견병
투과율
노바스크
신대체요법
구토제
피브린
뉴클레오캡시드
글루카곤
콧방울
하이드로퀴논
현기증
낫적혈구
자궁부속기
옵소닌
분만실
극층
종말끈
먼쪽
고콜레스테롤혈증
숨쉬기
이석
빈랑
상처치료
팽창선
복장목뿔
기도압
다발층
비바린
장골정맥
보조장치
부식성
시신경병증
일회호흡량
큰세포
밀도차
석연
피부병증
월경곤란
화학주성
장염
수면두통
면역억제요법
코성형
보조요법
골수염
전정신경염
가루약
다이얼
상피세포
젖산탈수소효소
무통
바세린
활차상
펩시드
은박
웰부트린
척수자극
캠퍼
피부건조증
석회화
천추
미세혈관병증
후두통
횡문근종
망울요도샘
반달연골절제
용적
딛기
혈관내응고
골절편
어깨뼈봉우리
감각신경섬유
반사망치
날개입천장오목
비복신경
난구
골질
산업보건
독활
호흡계
뒤침
감염력
근피신경
사구체병증
골연골
장비골근
수면무호흡증후군
곤봉지
숙지황
혈청형에
유리질화
자극전도
서브클래스
샘암종
성결정
아형
골재형성
공동자극
인대파열
머리받침
압력측정
발열
유당
열손실
이명
자리옮김
마른기침
위팔뼈머리
등허리
늑골연
뒤세로칸
협동근
형광염색
가래
산소소모
맥락얼기
유방밑
항산성
난황낭
푸마르산
폴리오백신
보건지도
요로감염
아달리무맙
분선충
윌슨병
코끝
부고환
어깨위신경
건강보호
초음파학
후경골동맥
강직간대
카보플라틴
초음파요법
농양
입방
세포주
과민증
광천
측두엽절제
몸분절
신피질
위턱굴
표피모반
만병통치약
동형접합
감별점
장세균
회백색의
부하검사
힘주기
커넥손
종골
끝곁매듭
자가포식
염기쌍
레지오넬라
비알레르기비염
섞임
척수내
악설골
성대돌기
림프구백혈병
감염원
단극
음순
심장발작
동맥주위염
얕은손가락굽힘근
황열
마이크로미터
다래끼
합포체
유방자가검진
안지오텐신전환효소
체중부하
후방전
세모뼈
일반명
균막
알레르기반응
비등
동실
황폐증
약물발진
정맥류
중심동맥
민말이집
당질
전호
좌골
글루탐산
클로렐라
모다피닐
근운동
거대세포바이러스
양극전극
획득면역
인광
영양막
입냄새
정중신경
나비입천장
조절제
세포항체
유전상담
뇌척수압
출생전
힘줄집
맥박산소측정기
복합부위통증증후군
세로축
형간염바이러스
뇌좌상
혈전형성
눈꺼풀올림근
소음수준
시반
타크로리무스
문맥순환
무염
보행
대정맥
로돕신
손발톱이상
바깥막
코르티손
대두유
이목
전구인슐린
발바닥활
물집증
음운장애
히스다발
위치감각
방벽
한쌍
이식편
직렬
선량률
두갈래
열생산
결절음영
경수막
유전질환
순면
기억세포
진동시
간경화증
페니토인
열대열말라리아
메티오닌
섬유층
저체온
백작약
콜린수용체
젠타마이신
아바스틴
세레벤트
시축
대퇴근막장근
췌십이지장절제
바깥폐쇄근
이식조직
붕산
암피실린
후외측
울트라엠
산디무네
신경섬유
액티바제
격통
눈통증
결장간막
염화
핵자기공명
하위운동신경원
저밀도
임상병리학
보건의료계획
혈구계산판
아세틸기
불면증
일산화탄소중독
소생술
상완
운동부하검사
폐환기
견갑배신경
원생생물
폐렴구균
속목동맥
심근병증
이형성
자발
연수막
알돌라아제
아픔
목삼각
생식샘저하증
외과의사
두개내
노말
사슬알균과
신경활동전위
무기폐
가운데귀
조직화학
피하기종
공유결합
척수쇼크
판간
베코나제
전거근
영양학자
모구
삼투질
좁쌀종
마취제
백색판
유방영상
대황
혈류속도
변압기
호산구증가증
근절제
메산지움
항중성구세포질항체
머리목
요도
운동감소
날신경섬유
반두통
여드름
분해대사
상대정맥증후군
둔탁음
신경생리학
단측검정
운동프로그램
도움세포
위눈꺼풀
배란
둘코락스
다혈증
지방생성
자극검사
수동운동
효과기
전의식
스토퍼
국소마취
고환올림근
중층상피
치과보철학
토코
혈관근지방종
혀밑
경막하
자궁내장치
누두
린트
골간인대
숫구멍
관통상
정강동맥
정화제
전정편두통
장염비브리오균
카보닐기
혈구계
중심구
마취전
크루프
신선냉동혈장
단당
핏덩이
멜라닌소체
기형학
에스쿨린
수동수송
유동인구
엄지두덩
만성림프구백혈병
아세트산
보체성분
운동기억
사정액
미크론
에날라프릴
비복
단일신경병증
석검
시력검사
심장전문의
고역가
약독
엑시머레이저
확장기
부가요법
드레싱
소뇌반구
부췌관
사회기술훈련
뇌신경
안티센스
요도샘
선모
이름표
알타스
눈회선
허리엉치
팽만
토피라메이트
뒤침근
다관절
샘꽈리
박속
허용량
흉쇄유돌
반음영
담황색
가와사키병
이염
대뇌낫
폐외
포접체
초단파
파누스
항원제시세포
기능장애
혈관고리
불수의
유두종증
포자낭
엔테로바이러스
다엽
분만시
정맥혈전증
뼈사이동맥
연골종증
불감
용적과부하
결장암
증식억제
아토르바스타틴
치돌기
중심고랑
쇠약
의료전달체계
전신마비
콧속
혈청병
당지질
콜레시스토키닌
좌골신경통
아밀라제
비만세포
항부정맥
세포덩이
순환항체
분비암종
회귀방정식
자궁수축제
말단비대증
노쪽손목굽힘근
쓰쓰가무시병
림프구증식
관상영상
단핵구증가
다인
부착단백질
근막통증증후군
미간
오스테오칼신
범불안
벤조다이아제핀
큰볼기근
참진드기
입방뼈
산소요법
질검사
부등상시
황체화
활성기
뼈바탕질
폐렴사슬알균
이상언행반복증
메니에르병
잔기량
대립인자
자가면역위염
기관지세척
데오드란트
면역형광검사
컴퓨터단층촬영
렌즈미터
잔여난시
타원적혈구증
이상전도
간화
상대불응기
류마티스질환
바늘생검
조기폐경
인슐린혈증
포화도
전자하
파극
두덩
갑상선기능저하증
약물농도감시
흑사병
원개
응혈
손목뼈사이
조직생검
마사지요법
림프모세포
콜린차단제
무지구
커넥신
응고경로
레몬그라스
감각과민
미세섬유
넙다리
중심정맥도관
비용종
진피내
난황
포화지방산
흉쇄유돌근
광선요법
치종
가려움발진
가락사이
영양재개증후군
질고정
발육균
요루
아세틸화
약물요법
멘델유전
이소소르비드
고름피부증
아메바
입천장긴장근
신경총병증
협동장애
붙음
타미플루
국소화
센텔라
코털
발목관절
콜레스테롤혈증
수축성
허혈
요정체
항섬유화
신경성식욕부진
자쪽손목굽힘근
침대돌기
신경조직
진성적혈구증가증
폐동맥판
질염
치료가능
가쪽뇌실
지용성
어성초
장질환
초승달사구체신염
제4뇌실
메타콜린
무릎통증
장딴지근
거품세포
재팽창
단순포진바이러스
신경세포종
간흡충
전전두엽
담석
배설촉진
활모양
과체중
저알부민혈증
우레아
젖꼭지
근막절개
복합부분발작
복시
가쪽위관절융기염
정중
유전형
이복근
편평
소독제
생식세포
성숙기형종
식욕억제
귀두
침연
반사광
복강
바이러스병
통각과민
메타크릴레이트
점액
증량제
인공방광
이완
관절병증
두개내출혈
복막강
장내가스
시야결손
에터
활막절제
항인지질항체
산저하
본뜨기
내반주
근섬유모세포
체외충격파쇄석
선천면역
한눈
친핵성
류마티스결절
비갑개
방광주위
결절경화증
발현벡터
직장염
자궁내막증식증
구아검
위석
성기능장애
로라제팜
신세포암종
난관염
미세알부민뇨
주머니모양
경구투약
발꿈치힘줄
프로토포르피린
전사효소
유착성
강박사고
머리인두종
전층피부이식
편타손상
치과보철물
방사면역
교감신경절제
얼룩날개모기
결핵
얕은근막
자연요법
혈전
십이지장
항경련제
아래곧은근
헌혈자
트라넥삼산
질병인식
흉요
녹내장
고영양
열전도
어깨위
유핵세포
항감염
주세포
분계
감각결손
역전사
이질염색질
곁주머니
샘플러
이완제
퀴니딘
총철결합능
특발성간경화
그물체
혈관염
두위
등쪽굽힘
이확
회음절개
팔다리뼈대
미생물무리
피포
신경종
메스꺼움
섬유모세포성장인자
잔비늘
비스듬
호흡마스크
양전자단층촬영
망울요도
유선종
단사
방추세포
열림
환추
끝마디뼈
이행부위
눈부심
전기장
유전자군
흑색손발톱
인지행동요법
편도절제
척추앞
혀인두신경
재접종
납중독
회전자
결막부종
미세관
구더기
외층
섬유조직구
세포외액
바늘흡인
의무실
말이집신경섬유
카모마일
활막세포
자유라디칼
온천수
하전
내분비학
쌍생
근절개
장폐쇄증
재분포
전이술
관암종
거담제
방사선치료의
공모양
내측측부인대파열
결절홍반
신성고혈압
안와
직장암
자일리톨
분비촉진
알부테롤
우심방
신경절
구음
하수처리
생명윤리학
근판
흉강삽관
비늘증
황체
빗장밑
혈압계
피하주사
물림
비장종
미세운동
복장뼈자루
혈액도말표본
요산염
골반내장신경
단백질가
백체
문맥계
불개미
겸상인대
교감신경계
유행기
카제인
역가
도역
성교통
구개인두
엉덩동맥
심장사
부갑상샘저하증
땀구멍
심실내
조해
전신마취
흉강천자
오염제거
바소프레신
만성폐쇄폐질환
회전의자검사
결핵수막염
엠파글리플로진
측정가능
신전성
뼈몸통끝
세동맥경화증
손허리뼈
아미노기
혈색소침착증
연막
각질피부증
지능검사
신장염
각차단
치통
축적병
맥문동
섬모체
신경근차단제
대량출혈
토콜
카포시육종
부갑상샘
관암
위소뇌다리
폐심장증
쉰소리
편마비
생체내
해면뼈
흡입기
금기
페스트균
좌뇌
일란성쌍둥이
갈비척추
정력
뇌졸중
백전
관절융기
구강외과
허약
소뇌천막
에틸
치주염
메타돈
시스틴뇨
유해사례
광화학요법
교차오염
유독한
소실률
사종
치료계획
전구증상
후비공
손목관절
입자가속기
연무
가골
경수
레이노현상
저산소증
분비촉진제
변연화
수용체
원심력
허파꽈리
성장부전
티피
안구돌출증
종관리
섬광체
능동면역
홍반
중재연구
유육종증
잠혈
이화작용
근육세포막
금욕
조엑스
동시수축
짓무름
푸린
하이드록시
대조염색
양수과다
핵주위
디비
소염제
조숙
뇌막염
페퍼민트
음성치료
두타스테리드
이상섬유소원혈증
소원근
측두근막
강향
기정맥
허기
섬모체근
자가포식현상
골간
저혈압
구진증
낫적혈구빈혈
올리고당
절뚝거림
비정형림프구
막경유
엔뎁
결박
하수오
편심성
면역글로블린
대증요법
각막형태검사
신경세포체
흑색가시세포증
중탄산염
진행암
형성장애
지대치
원주세포
면역흡착
구충제
다낭난소증후군
피부병
덤핑증후군
레이저치료
항응고제
수크로오스
동맥천자
안구함몰
분류학
뇌탈출
호흡사슬
낭성난소
스트렙타제
정상압
정상인지
동안신경
체리
큰구멍
그물층
간동맥
날림프관
위십이지장동맥
골용해
둔신경
혈관내피종
폭식증
골수내
림프소절
뇌동맥류
안쪽세로다발
뇌경색
멸균기
태아곤란
보습뼈
보폭
자궁경관
유효용량
전향성
무작위화
상비갑개
연결기
지시서
엉덩허리인대
이완불능증
세파클러
폐쇄근
운동에너지
교감신경작용
안정막전위
복제분기점
유전결함
코뼈
글루탐산염
사구체여과율
두갈래근
자살행동
마름뇌
저산소혈증
곁인대
섭취부족
괴저
양극성장애
뱀모양
두개골막
정맥혈
죽경화판
후두내시경
스피리바
전치태반
각성상태
우심실부전
이상근
견갑
엉덩근
느린비틀림운동
거대세포동맥염
돌발파억제
유전학자
각형성
액화질소
특이면역
발목발허리관절
서맥
압각
균일성
허리네모근
계단오르기
유두근
상비
코인두
신경초종
아미노당
폐포염
상완근
대항제
올레산
렘수면
페닐케톤뇨증
관절유합
베타인
환자확인
배설촉진제
뼈염
시멘트질
세룰로플라스민
한센병
생식기사마귀
라타
정강
잔떨림
전신홍반루푸스
교두
세포외바탕질
누공
볼기근
배속빗근
투석액
동맥확장
말초신경병증
국제질병분류
연골밑뼈
근시
큰가슴
다변량분석
앙와위
진동감각
기저핵
녹는점
적혈구침강
척추증
요부
단순낭
물결모양
공포화
투사섬유
유리체액
비역
모루뼈
질병명
등장성
척주측만증
글래스고혼수척도
백막
혼합기
자발안진
눈깜박임
정신상태검사
난시축
전기화상
참고물질
땀띠
벨크로
경골신경
간상
구연산염
보호기
중심와
온습포
상위운동신경원
간모세포종
조영제
운동완만
입호흡
카바마제핀
읽기장애
건강행태
위시상정맥굴
질환
포도막
클로로포름
이소골
꽈리관
모관
이황화물
폴리프로필렌
이비인후
루푸스항응고인자
혈소판
피부석회증
비장절제
쐐기압
바이러스간염
미국식품의약국
신경뿌리
분비과립
에센스
응고
보체매개
팜비어
과전만
부신피질자극호르몬
압통점
에코발생
알파파
면역강화
이랑
관자아래
브이
귀울림
프로작
깊은정맥혈전증
폄근지지띠
계통발생
지방갈색소
순환계
삼투
미다졸람
손가락허혈
슬와동맥
당뇨병환자
멘톨
전희
자세검사
방사화
회향
흉식호흡
심장학
팔미토일
조사망률
림프
운동신경
외고정
독성효과
위둔덕
혈량저하
암죽
저에코
뇌실곁핵
말벌
완만
전구약물
단백혈증
자궁내막증
다리뇌
괴혈병
진동기
결합빌리루빈
전방경사
일염기
타이레놀
몸통뼈대
객혈
용화
독사
세포호흡
완충능
시린지
물집
내회전
판막역류
구면
엉덩정강띠
작용제
배바깥빗근
관절탈구
이온화방사선
찰과
저혈량쇼크
림프조직구증
섬유조직구종
염색분체
혈액형검사
초기항원
비중격성형
콜히친
위상차
자궁내
신경내분비암종
최음제
아프타
사지마비
약요법
입방세포
복굴절
리스프랑관절
종아리신경
바로누운자세
기분장애
하이드로콜로이드
금은화
탈락막
세페핌
굴모양
아데노신
거미막과립
정신진단
다모
피부신경
지방부종
환기량
사구체신염
비흡수성
자가면역반응
리스테리아병
머리널판근
귓속뼈
위산
접시오목
식각
운동행위
반가로막
뇌미세출혈
양귀쪽
아래올리브핵
굽음증
굽쇠
불규칙성
해면정맥동
아스피린
엉치엉덩관절통증
부신종
모근
등세모근
남세균
외사위
기도유지기
턱끝
야생형
위생학
고리모양
세포막
바이오틴
질분비물
낙석등
기니피그
카나글리플로진
회춘
평균혈압
브롬화
인슐린수용체
조면
알부민혈증
혈관확장제
비뇨생식관
앞십자인대
이드
상태악화
우디
기관지폐렴
극돌기
샘증
양막염
기억상실
자연발생
긴손바닥근
골단판
수족구병
조증
피부성형
광자
차광
졸음증
피부과전문의
황반
진동자
최대용량
로즈마리
세포바깥액
안와주위
엉덩아랫배신경
손가락폄근
융모
거짓음성
움세포
신경계질환
병발
유전자자리
장상피화
나비모양발진
광질
스타틴
새끼발가락
적전
응급의료전화상담
흉막강
크루드
항원수용체
두통
저나트륨혈증
보행기
심장눌림증
위령선
진통보행
발성장애
발바닥동맥
혈구감소증
심부건반사
각막궤양
보완대체의학
말단장치
플라빅스
양쪽성
활액삼출
음이온차
격리기간
역반응
대동맥궁
다형태
양압환기
시신경집
종자세포종
촉진기
부신위기
근세포질
창자세포
과다섭취
혈액가슴
마이코플라즈마
암종
세정맥
혈관섬유종
전신비만세포증
파동편모충
열창
개흉
쌕쌕거림
청진기
아세트알데하이드
프로테우스
조절유전자
가슴림프관
시부트라민
리보소체
날숨
건초염
아래턱신경
원위경비인대결합
손발톱바탕질
아전절제
맞교차
수두증
유화제
기여위험도
기관지염
지방침윤
라임병
면역원
성호르몬결합글로불린
정삭
양귀
피하층
소화성궤양
하비도
내이도
구아니딘
인후두역류
상승제
박동조율기
수근
강제폐활량
관절염
전경골근
안검경련
전교통동맥
반동압통
넷째뇌실
스판
해리곡선
노인학
유사체
흉쇄
요측수근굴근
활액낭
달팽이관
세포독성
입체형태
생식력
메만틴
전단응력
디스트로피
생물학적동등성
실핏줄
덱스트린
과다폄
선천
아토피
섬유연골
이부프로펜
벽세포
조기암
병적상태
변통
팽창계
연쇄반응
점액종
칼리크레인
적혈구감소
동청
노회
노인환
공포변성
리퀴드
극통
광검사
티카그렐러
사용수
초파리
세엽세포
간외
반막근
미상핵
동염
일차알도스테론증
안경테
비가역
핵의학
신경절신경종
난소절제
협착심장막염
깊은종아리신경
샘비대
세프트리악손
예쁜꼬마선충
항섬유소용해
볼록렌즈
콜린산
신호서열
거대적혈모구
각화종
뇌혈관조영
크레오신
고혈압약
신경상
C군
코입술
신경전달
담낭염
전도계
뼈조직
복음
엽사이
폐활량계
로피드
치료대
수액세트
체질량지수
탐색행동
심신장
알라닌
안뜰눈
불활성화
알킬화
정맥조영
에페드린
상대생존율
코위
이소시아네이트
신경다발막
세갈래근
면봉
실신
여과기
불치
응고괴사
부분트롬보플라스틴시간
수술치료
자궁근종
아세테이트
뇌실막밑
유칼립투스
허리뼈
내분비샘
점안제
송곳니
이온결합
소변감소
과산화소체
위통
척수수막류
최소량
자궁난관조영
유두체
팔꿈치머리
림프종모양
장관영양
균상식육종
난모세포
하버스관
심장막염
형질세포골수종
형개
적절도
절제면
주시마비
부신피질스테로이드
의료계획
인두염
말초신경계
락토페린
지역응급의료센터
사이질폐렴
고중성지방혈증
유양돌기
부리돌기
충격파
락토스
수간
솔가장자리
소디움
수도관주위
히스타민
멘솔
거대핵모세포
실데나필
모자보건
백혈구증가
추간판탈출
척수소뇌로
심장성쇼크
굳음
피부경유
도말
노안
형질전환세포
유도기
승모판
근육내
의료수요
호염기구
수축기압
상피내신생물
승모근
동맥류
중족골통
다파글리플로진
지혈증
금단증상
지방대사
먼지진드기
상외측
안과의사
악성고열
삼킴
저류
장딴지빗근
척수근
갈비뼈각
갈고리이랑
다사티닙
라이신
라식스
베타세포
셋째뇌실
삼차신경통
샘종
동결절편
영상기법
각막이식
부정정렬
적혈구부동증
진피
갈비사이신경
용종절제
안정위치
편측발리즘
폐색
피폭선량
피부이식편
척수동맥
연하곤란
관성형
족근관
복합면역결핍
무기관
미세수술
강박장애
호흡량
에이티
꼬리쪽
기생충혈증
재생불량빈혈
별아교세포종
이온전류
심장외
자가면역용혈빈혈
날문방
세포표면수용체
무좀
꼬리근
망막염
거친면
발정
연골내골화
직장질
미주신경
운동신경섬유
미세동맥류
충전기
형성층
아미노기전달효소
거대유방
항기생충
액와
유발전위
교감신경줄기
마취기
동종이식편
비신생물
전정
판막
열대열원충
색소상피
하복부
평형반
대퇴동맥
제산제
반고리관
탈억제
원주상피
소화장애
온쓸개관
체외
사혈
혈관협착
항진균제
착색안경
자궁탈출
표지자
페니실린
섬유성
모노아민산화효소
장막심장막
양수지수
나비굴
폐렴막대균
부유물
척수소뇌실조
중합효소
척수조영
액토넬
항응고효과
에틸렌글리콜
이끌정맥
황화합
반점
후장
카두라
헬륨
전기진단
전도도
벨마비
습포
어깨밑신경
스쿠알렌
무언
동정지
후부하
병감
팔미트산
빗장위
반고리뼈관
발생이상
생활력
좌각
고장성
생체이물
방추체
각성도
신장동
상완골
케겔운동
요산혈증
방사성동위원소
뇌출혈
접골
추체로
저인산염혈증
후두위
종양치료
동맥경화증
정화기
기능저하
보렐리아
악성변화
회복실
방향감
간대경련
약물작용
군발두통
호염
가인산분해효소
후교통동맥
깊은목림프절
열대열
요독
구협
성인병
불투과
위유
항산화효과
기저세포
면역조절
조사량
살모사
운동이상증
상악신경
난포
지방층염
건조증
턱뼈관
위험비
혼합백신
해마곁
아포크린
세균증
섬유소용해제
고형종양
제모
둥근천장
선택성
용혈반응
뇌파기
이향운동
간유리음영
생선기름
퀴닌
가슴관
골반가로막
안와격막
글루카겐
폐쇄막
고환꼬임
미세구
석위
온찜질
혈액요소질소
자궁내막용종
과숙
장티푸스균
조직적합복합체
삼상
케토산
시겔라
비경구영양
관장액
탄력섬유
소음순
사구체여과
체정맥
말라리아
이종이식
가시사이
미각이상
부리위팔근
태아경
띠인대
관통동맥
치유율
깊은샅공간
사구체경화증
면역자극
위성세포
다리올림
머리덮개
쐐기절제
히스토플라스마증
광인대
원시
충돌증후군
이소부틸
입체시력
미코페놀레이트모페틸
무에코
낭성종양
난산
보체수용체
계심
흡수제
집형성
감마글로불린혈증
구륜근
부전도로
기문
석고붕대
전기지짐
간관
알킬
오한
대조시험
유해자극
신경통
귓불
담석제거
비만증
설소대
자궁외
코가시
수척
항종양제
플라스미드
견열골절
설포닐
추적연구
바깥귀길
모르핀
입꼬리
작용점
외래마취
파모티딘
다핵
연골세포
연홍
관측자
접종자
자쪽
림포카인
치주인대
목발
영양보충
음주행동
감각저하
박피
뒤뿌리
성발달
원생동물
층류
교액
입주위
엉덩뼈능선
부착반
베체트병
고임
스펙트로그램
관절강
자극접촉피부염
혈관종증
비골동맥
낭주위
유피낭종
저작력
림프절병증
가성
전혈
혈액응고장애
혈관평활근종
내과전문의
적응장애
일산화탄소혈색소
위곧은근
동형접합성
요소회로
갑상선기능항진증
피곤함
혈우병환자
긴장저하
담당의
경추간판탈출
메드롤
반응률
무산소혈증
털과다증
바깥뒤통수뼈융기
관절침식
속공간
다인자
동종이식
홍삼추출물
세륨
락토바실루스
파국
쏘임
분광분석
궁둥신경
자궁기형
관절경검사
인유두종바이러스
태아빈혈
만성콩팥병
턱교정
백혈구감소
입천장신경
하이드록실기
전기생리학
혈액응고인자
공기전도
경상돌기
직립보행
플루코나졸
윤상연골
빠른부정맥
마황
후두인두
인중
압력수용기
이등분
요량
정신병
잔류물
투시장치
아교질섬유
임신중독증
미용학
신경퇴행
전기신호
신혈류
인공피부
위약효과
열치료
전달물질
발목발허리
완충제
면역확산
회전력
수뇨
선택기
고해상
히드록시
뼈막
조음장애
펼침
내시경초음파
성매개
물사마귀
유전율
어지럼증
보체결합
신경내막
다발경화증
섬유소용해
섬유모세포
소포암종
극초단파
아킬레스건염
석회증
염화나트륨
굽힘근
하지통
정상부위
백수오
쌍극
배설기
포진
첨단체
뇌혈관질환
인두신경
가로막동맥
모세혈관확장
족문
점액세포
엎침
레티쿨린
힘줄병
심방중격결손
트레드밀
암시야
회충
대장염
마치현
바시트라신
경막하혈종
섬유종증
장내시경
아데노바이러스
핵종
감시림프절생검
콩팥병
헤베르덴결절
경추
슈반세포
방어면역
고유간동맥
골반강
얕은층
용혈소
치은출혈
피내검사
제니칼
건조기
럭스
가쪽들림
관류저하
자연출혈
지루
가쪽발바닥신경
해독제
감별배지
각질층
진경
비틀림
표피낭
대요근
뇌회
부정교합
공기증
대동맥판
농축물
잔상
대사질환
로타
신세관산증
공동운동
펜넬
광대돌기
속귀
긴노쪽손목폄근
패혈증
클로피도그렐
착즙
폐혈관저항
발병력
성장장애
다공
공명음
기록기
프레쉬
사람면역결핍바이러스
분만통증
영양공급
섬유관절
광자극
트림
가쪽무릎체
세신
카복실기
시클로포스파미드
리소비드
맥락막
반힘줄근
생존가능
리네졸리드
근긴장증
상기도
본태
구개공
소아외과
부신피질호르몬
페닐에프린
방사선치료
점액부종
바깥갈비사이근
진균감염
크롬친화
지방변
조임
진피표피
미분만
바닥핵
종양표지자
우관상동맥
포공영
질절제
계대배양
유골골종
저영양
각선
대동맥축착
육종증
국제단위
일회박출량
고칼슘뇨
민말이집신경섬유
계보발단자
정제염
원주렌즈
겨드랑신경
결정침착
자극제
중심핵
수초탈락
근널힘줄
법정전염병
신경전기
협동작용
삼각골
니트로글리세린
배액
에칠
연장인자
무산소증
난소동맥
가시끝인대
핵염색
알츠하이머병
흡인
관절낭
잘록
낙설
반사작용
황화수소
외번
급속진행사구체신염
아주르친화
자가수혈
잇몸염
대사이상
키네신
케톤체
레비소체
면역학
뼈대근육
홍반루푸스
염화수소
메디케이드
플라크
심부체온
히스토그램
택사
경석
응고인자
내림프
점액소
항고혈압
조절마비제
반코마이신
마개
급성담낭염
혈액뇌장벽
병원윤리위원회
힘살
히스토플라스마
비전염
연접전
방부
심장박동수
육아종병
응집검사
내배엽
척골신경
산화칼슘
등전위
외과용
근육피부신경
아르지닌
막구멍
촬영법
무진행생존
중성구
모과
자극기
종양학
회외
아쿠아
충수
응급수술
보건행동
척수종양
표재
정맥천자
세망
아세트산염
척추동맥
신경조절
빌리루빈
고신호강도
당화
궁둥이
사이토크롬
아반디아
색전
교감신경절
내반고
피부결핵
알레르기천식
초생체
젖힘
대적혈구
모야모야병
타원구멍
납작뼈
은염색
운동영역
산패
적혈구응집소
구음장애
주근
두개내압상승
음성되먹임
백혈구
호흡저하
비단백질
인후두
근열
브로멜라인
혈액암
회전운동
피부건조
뼈사이인대
편형동물
히스티딘
명소시
충혈제거
노로바이러스
두힘살
봉공근
호산구증가
심실박출
텅스텐
가슴우리
건막
순음청력검사
연선
정맥굴혈전증
주기성
증가량
점액분비
골구
연결다리
후뇌
영양장애
황금추출물
배아기
중간마디뼈
자신경
알고리듬
규화
기관지폐포
잔탁
수술기법
세안제
고안압
근육속막
알로에베라
최고혈중농도
고환종
전층
전위차
열사병
근병증
보체활성화
단층촬영장치
혈류역학
손목터널증후군
조충
기저동맥
베르목스
기관지확장증
산통
목신경얼기
성장곡선
특이과립
십이지장경
소세포폐암
파킨슨증
내반족
바실루스
세모인대
작은결절
등쪽어깨신경
면역전기영동
시스테인
음성남용
골내막
치루
분할용량
동공반사
둔감
운동핵
항이뇨호르몬
주머니염
허혈시신경병증
이소증
전염병예방법
세정기
소포샘종
콜레라
흉부영상
시신경
합개
무수물
레지오넬라증
사이기
람블편모충
신기능검사
필린
인공항문
황색포도알균
좌심실
작업기억
블레오마이신
매몰재
트롬보모둘린
배양액
포식세포
목신경절
이페칵시럽
온도안진검사
이완증
비장비대
어깨밑
대퇴회선동맥
개복
요소질소
세포내액
섬모
리파부틴
호흡수
다염적혈구
가쪽넓은근
오름대동맥
종세포
머리기울임
샘낭
세침흡인세포검사
대사수
햄스터
레트로바이러스
고정제
터너증후군
비췌장
이트라코나졸
보호제
전하소뇌동맥
점액변
음조
포도당생성
갈고리뼈
디프테리아
근육층신경얼기
상향조절
무력증
육안검사
표백
골반염증질환
입안바닥
손발톱진균증
몸감각
모세혈관압
혼합결합조직병
황산아연
열에너지
위바닥
가속기
핵형분석
엉덩정맥
상피종
횡축
리바비린
구갈
아세토니트릴
격리실
혈액성분채집
구역반사
고리뼈
청각이상
보조물
트로포닌
태선모양
동소
마우스피스
성도착
미분만부
과산화
매염
장파열
월경주기
여러형태
백두
최소살균농도
응고성
단백
제거제
지혈장애
포밀
골형성장애
상완이두근
관주
국소림프절
융모성
계류유산
후박
글루카곤종
경골
사이질핵
장기이식
페노바비탈
사이원반
수소결합
산과다
폐쇄각녹내장
윤상갑상
삼차신경절
병리학
단안
골이식
락트산
식공
색각이상
가공의치
세극등현미경
모유수유
비장세포
혈압강하제
경비관절
유륜
상처감염
자발호흡
두관절
수삼
포상기태
영양동맥
한랭
대기오염물
중성자
중동호흡기증후군
시신경염
새끼맞섬근
뇌사
출혈시간
회내근
굴절검사기
연골관절
형질
교정시력
배양병
큰몸증
사합체
유백색
세포질
생존기간
상악골
아이코사노이드
수의근
암배아
전신마취제
반달뼈
호흡정지
골경화증
호염기반점
회충증
친핵체
음악요법
갈근탕
아스페르길루스
심외막
협착음
교환기
집합관
급성췌장염
노뼈거친면
미측
회복시간
유효선량
소근
내림근
활성물질
소구치
세침흡인
유도분만
두손
물치료
흐름세포측정
기본단위
속귀신경
이차예방
개회충
목적론
저하제
관계문제
뒤기둥
선발생장치
하악
안지오텐신전환효소억제제
유도물질
인터페론
개시자
담낭절제
선형탐촉자
결합부위
폼알데하이드
대체요법
심실세동
누선
사침
기침약
캐모마일
하반신부전마비
종말점
용제
급성자
저색소
복막투석
흡수율
낭결석
긴종아리근
근방추
들신경
전해질불균형
섬유테
눈물관
상행결장
환상통
점증
간이식
혈관내
상안검
데스모프레신
타오
발열반응
용혈
성조숙
상대정맥
카바모일
목뿔아래
저분자량헤파린
경추협착
쇄골하
심장부정맥
항암제
송과체
생식샘
동맥관
불안정협심증
척추몸통
피딱지
척추마취
전자현미경
외반고
골교체
간지방증
조임근
피부분절
혈관주사
씨프로
협막
암배아항원
아스파탐
골수외
시스틴
과활성
팔신경얼기
피부이식
정신간호
아이오딘
미녹시딜
침습암종
이온투과성
뒤판
자기공명영상
관류액
간이정신상태검사
천미
정맥울혈
지방조직
자궁하부
규폐증
가시끝
신경유두
입각기
마비환자
꼬리핵
저작근
난소난관
소뇌
미세침습
췌관조영
정맥학
눈꺼풀틈새
이노신
더미변수
무정위운동
진단시약
보건관리
간대
에제티미브
네갈래근
방풍통성산
주관절
코로나바이러스
화학작용
전정신경절
정동장애
호흡기세포융합바이러스
중수골
누적선량
각기병
검사물
구면렌즈
샘뇌하수체
저신호강도
충부
범혈구감소증
퇴축
결합에너지
흉곽
안구운동
관절와
과영양
널판근
재산화
아세틸
철선
가자미근
매개물질
기생충학
인플루엔자균
기관지확장
온열치료
프레그
백혈구감별계산
미립자
땀샘
등방성
가돌리늄
측와위
고혈당
공황장애
종양억제
시트르산염
모반세포
장근
병적비만
기능검사
알레르기학
목뿔
굽힘근지지띠
해조
상아세관
귀밑
면역억제제
티몰
영양증
후십자인대
하품
불활화
막속
응고장애
동맥조영
단클론
맥아당
생식샘자극호르몬
불변부위
골막반응
생지황
섭취율
조직구
기면병
괴사근막염
운동실조
모공각화증
클로르페니라민
브로민
항류마티스
각피증
검인
리도카인
배제기준
기외수축
하악관
골수성백혈병
항응고요법
점막근판
면역질환
가정간호
무해자극통증
솔기
척주관
평형상수
예방의학
유방통
보체계
방사선조사
호산구육아종
표준체
고알도스테론증
발작사이
혈관수축제
암적색
저칼륨혈증
태아수종
냉동보존
수면장애
리슈만편모충
알벤자
기저세포암종
시험위원
평활근종
성세포
실인증
해열진통제
스테아르산
안근마비
성영향
어깨세모근
골수이식
형질세포종
그람염색
측방굴곡
사람백혈구항원B27
알파운동신경세포
음경귀두
손발톱주위
베타선
항원충
안과전문의
장골
데인
크로마토그래피
요도루
연골무형성증
근간대뇌전증
한천
알로퓨리놀
뒤가쪽
후두엽
의학유전학
진경제
승모판협착증
지역병원
실어증
이눌린
항콜린제
궁둥뼈
덱사메타손
폐섬유증
과굴곡
광대활
파골세포
과다호흡
보상기전
온몸순환
교차결합
고정근
방사선요법
산소측정
웅크림
심장근육
근마비
자궁내막염
전진술
세포학
황련
시간간격
흡인폐렴
이형접합성
뾰족콘딜로마
극근
배란주기
동결혈장
봉합기
양성자
아자티오프린
배양접시
편평세포암종
골화중심
억제제
졸중
족저
영아돌연사
오목가슴
노카르디아
시각영역
낭미충
기능식품
레티노이드
위눈확틈새
전진피판
능형근
비알레르기
0기
구척
교세포
동정맥루
부신경절종
고분자글로불린
전방각
태반기
향부자
적혈구용적률
비피더스균
정중선
단순포진
어깨위동맥
태아기
아편유사진통제
심장음영
조기양막파수
속림프
진드기매개뇌염
피부부속기
지속기도양압
혼수
눈신경
출혈변환
유지혈액투석
약동
광유
난독증
심장박동조율기
재활원
엉치
급성복증
평균선량
액상과당
페놀산
입둘레근
삼일열말라리아
병원행정
숨뇌
글로스
질관리
혈당지수
질소고정
내장신경
페닐
수딩
대핵
미세외상
피브리노겐
판막협착증
정방향
기울임
백당
배엽층
해대
인위
혈소판증가
소아기
뼈대계통
급성간염
추출률
엔도텔린
기초대사율
탄화
간신증후군
템플릿
혈관수축
열결절
마미증후군
난시
장티푸스
정중시상
후두내
티아민
항균제감수성
알레르기증
공간분해능
항말라리아제
신경구멍
우성유전
감염체
무모증
어깨밑근
고리인대
우림
벌집모양
점막피부
유해효과
복사열
가시세포분리
위병증
반달연골
다발골수종
방사선량
막창자꼬리
단순부분발작
측두
갑상선종
잘라이음
흐름성
혈철소
자가형광
큰허리근
관류압
영상증강
망막박리
금요법
체절
외래수술
니트로
이통
자실
레보플록사신
지질강하제
소계
침강
식품알레르기
지신근
오금
결정질용액
분비자
외생
영상촬영
유암종
외치핵
반사도
측두근
혼미
신경병증
후두염
척추성형
되돌이후두신경
척추앞신경얼기
척수분절
항말라리아
삼일열원충
외배엽
시신경위축
자리옮김효소
성욕저하
분만후
산소분압
팔꿈치근
황폐
가시위근
염증매개물질
끄덕임
열린사슬
염화물
엉덩허리
메틸아민
메틸도파
벤조일
신경전달물질
사람유두종바이러스
촉지성
케플렉스
장력
면역보강제
분만전후
사람백혈구항원
눈꺼풀연축
중재시술
극간
장미진
초항원
죽종형성
구형적혈구
창냄술
호산구백혈병
뇌하수체저하증
심방빈맥
옴진드기
덱스트란
사염화탄소
혈소판풍부혈장
보호안경
배양물
성주기
아마이드
슬라이스
무른궤양
혀밑샘
이분척추
서혜
중간뇨
인회석
혈관병
에오신
자연회복
핵형
사전동의
잔류염소
카본
뼈통증
위팔두갈래근
부등시
십이지장충
지방유
파종혈관내응고
정자은행
지방분해
기본소생술
근거리시력
스파르가눔증
케모카인
위축증
수의운동
안정제
신경집종
기록전극
손톱밑선상출혈
기계적수용
털모양
약물유발
약물과용두통
마음이론
원섬유
에센셜오일
빠른맥
후방전위
각막염
분기점
성병
야경증
혈관폐쇄
중쇄
무뇨
위치선정
항호르몬제
조기흥분
요추염좌
정맥염
혈관절증
돼지풀
스테롤
무지외반증
진모
바클로펜
정맥동
악성전환
세포검사
포유
완충작용
내과의사
환원형
췌장액
신경이완제
신경분절
옆굽힘
흔듦기
종자뼈
글로불린혈증
경자
활꼴동맥
감마카메라
질밑
재활의학
파라인플루엔자바이러스
항문올림근
비균질성
누로
난관조영
거짓낭
자상
외반
림프모구백혈병
손목뼈중간
정량검사
구획압
동종효소
다이오드
피부밑
방사선안전
위험인자
휜발
싱귤레어
항정상태
속명
긴장증
문맥압
조현병
보상체
콧물
인후두염
안락사
아지드
구형적혈구증
날개입천장신경
항문조임근
굴심방
포피
근력측정
허리엉덩
주입관
흑색소
등선량
의사처방
항경련
피하결절
피부과의사
자궁절개
수소이온
글루코사민
회색질척수염
시각경로
첨판
장알균
람다
족근골
도태
내분비
헤모필루스
원시세포
중안면
정위
자가소화
전립선액루
사각근
요침사
배꼽동맥
소두증
의사소통장애
멸균증류수
남성화
최장근
둘레띠
항불안
사과산
골결합
신경내분비세포
찰과상
공생관계
투여량
코끝성형
독성반응
환기관
적응면역
대뇌제거
경동맥
일차보건의료
아벨록스
베타카로틴
소수포
불안정화
혈관내피
혈전생성
눈꺼풀판
타박
내인자
해마경화증
전신치료
등골근
상완신경
단지증
질향상
장폐쇄
가림
추간판염
스파미드
음률
혈색소증
분쇄골절
세균뇨
악성빈혈
알칼로이드
내고정
소화궤양
수송배지
지각장애
햇빛화상
숨참
대장균군
효소면역분석
잔기
작은빨간집모기
비렘수면
대둔근
차추출물
분광광도
2형당뇨병
완전포상기태
머리덮개뼈
시진
야간빈뇨
페스트
혈당감시
말초혈관저항
빈혈증
부갑상샘저하
전신스캔
파극천
이성애
승모
케라틴
콩팥깔때기
그람음성
광신
장마비
균력
데스모글레인
요당
그물막
시호
인두수축근
섬유근통
지시약
세포형성
소아형
내시경역행담췌관조영
신경내분비종양
초제
상방회전
도파
신경심리학
여드름흉터
희소돌기아교세포종
자기관용
추체외로
극상
빨간집모기
두렁신경
핵자
대사율
크로몰린
독성간염
전구물질
체액
살무사
확률표본
섬유샘종
뒤뿔
내경동맥
둔부
확대경
자폐증
중쇠뼈
감각성
보존수술
온난항체
코기관
말초혈관질환
편측성
위팔근
점액모양
대사조절
측두동맥염
이차성징
주입펌프
조영증강영상
임신중기
우무
관절증
전두부피판
촌충
식도정맥류
결석증
연골염
된떨림
견갑부
전신색전증
마비
피부감각
림프소포
림프절전이
구조단백질
식욕부진
그물섬유
휴면
주시안
공기역학
부핵
메디톡신
별아교세포
자율신경병증
털집
박출
외측족저신경
동맥염
대퇴정맥
토코페롤
백일해균
환청
주요우울증
중화제
재출현
현실요법
분율
시신경위
조절인자
정위반사
손부목
바깥목정맥
척수매독
독성학
방사선방어
비뇨기
조직인자
억제반응
설압자
천자술
공기량
우연종
건초열
융모결절
산소통
맞물림
외측과
비가역성
척수신경뿌리
비만학
모반증
바깥목동맥
뇌하수체졸중
세기관지염
아실화
전염단핵구증
보간
압감
전자방출
빈사
전기화학
요소분해효소
리스테리아
중추감작
요측
활막염
요구량
그물척수
촉매작용
유두절제
유수신경
인식불능
목동맥팽대
뇌하수체와
혈전정맥염
뼈밀도
포진바이러스
심장비대
면역손상
항당뇨병
진해제
소화제
배가로근막
경조증
노뼈
이산화탄소분압
아종
낭염
긴장형두통
자당
목말종아리
에키나세아
소모증
피지낭종
다리부종
유합
저장액
뒤굽음
소기관
갈퀴손
통점
항원성
비후
향성
편람
타박상
동공확대
지혈
남성갱년기
사이안화물
항결핵제
뇌염
포도당의
미량영양소
아밀로이드증
자궁수축억제제
석창포
심장판막
눌림증
디아제팜
사구체염
두힘살근
침윤물
고리중쇠
혈행
절구관절
파이로인산
초조
메페리딘
턱목뿔근
지방종증
수막탈출증
산소측정기
고인슐린증
큰궁둥구멍
오금근
확산능
조절기
시각피질
골간막
다골
발달평가
세린
알데하이드
다형
자궁동맥
압박스타킹
근전도검사
문턱값
클로자핀
신경화증
단일유전자질환
고리화
허리부위
음성조절
욕창궤양
막전위
장골동맥
담도폐쇄증
리케차
극세포종
궤양화
간위
정강뼈거친면
클라트린
두덩뼈결절
식도조영
우드
인공삽입물
리포산
구불결장
뇌하수체샘종
열탈진
주두와
부유액
에크린
시상하부
안저
면역관용
흉추
최종산물
측두하악
융모양막
두근거림
점액용해
황산마그네슘
백선
외용
부속물
고리뒤통수관절
셋째종아리근
황달
색전증
뼈파괴
디기탈리스
무호흡
고형장기
각질세포
황색육아종
뼈발생
활성부위
비침
미즙
미열
멀미
심장충격기
약물의존
기관내삽관
아출
점액성
죽상경화증
축삭
호흡운동
빈뇨
케톤혈증
지질층
항균물질
대상포진후신경통
엽기관지
글리아딘
세포사
익상근
물콩팥증
고름물집
조짐편두통
비저항
중층원주상피
이미프라민
혈압
항생제
복부
항문
골반
심혈관
내시경
자궁적출술
신경정신과
다이어트
게실염
궤양성
전립선비대
전립선
동맥경화
종양
유방
디스크
비염
역류성
담낭
선근종증
턱관절
경련성
종아리
황반변성
과증식성
결정성
병변
방광
강박증
폐색증
혈관
강화제
위장상피화생
갑상선
저하
헬리코박터
신장
호르몬제
협착증
과민성
판막증
수전증
하지정맥
위장
오심
만성
출혈성
표재성
미란성
팽창
위장관
출혈
소변
대변
점액질
구역
알칼리
신물
기침
거품
과음
야간
창자
덩어리
식욕
감퇴
감기
빈혈
식도
뒤무직
선종
체중
산과력
하단
상단
우측
좌측
옆구리
명치
갈비
기관지
와부
콜레스테롤
당뇨
안암
더부룩
담도
관절
점막하
변실금
두경부
흉부
쓸개
고막
흉통
결림
염증
담액
임파선
시야감소
시력저하
안구
휴로펜정
페리슨정
후두부
코로나
사타구니
측복부
식욕저하
팽만감
구토열
수양성
회전성
배뇨
야뇨
간헐적
상복부
만성기침
갑상선항진증
퇴행성
노랗게
붉은색
검붉은색
선홍색
새까만색
와인색
갈색
황색
흑색
하얀색
노란색
토끼똥
##돎